<unk>	0
<s>	0
</s>	0
<sep>	0
<cls>	0
t	-3.38061
.	-3.56893
s	-3.60951
▁	-3.66664
co	-3.84701
://	-4.00416
▁http	-4.03354
/	-4.11462
▁de	-4.18003
▁@	-4.46678
r	-4.48545
D	-4.49494
a	-4.50954
▁a	-4.65424
o	-4.68031
n	-4.70971
▁:	-4.76493
,	-4.83147
▁la	-4.89943
▁#	-4.90968
▁en	-4.9405
▁que	-4.94277
p	-4.98004
l	-4.995
e	-5.03294
P	-5.04538
i	-5.05032
c	-5.05207
▁el	-5.06862
y	-5.12638
d	-5.15594
u	-5.19816
▁y	-5.20887
A	-5.24638
g	-5.28272
b	-5.32886
O	-5.32896
m	-5.34277
h	-5.37283
E	-5.38036
z	-5.38576
S	-5.38671
G	-5.3881
M	-5.41641
C	-5.4393
v	-5.44535
B	-5.44939
T	-5.45507
f	-5.46004
F	-5.48489
x	-5.48599
k	-5.49594
N	-5.51474
V	-5.54029
U	-5.54822
:	-5.55489
L	-5.55818
j	-5.5649
▁con	-5.56659
w	-5.57966
R	-5.58109
J	-5.59542
I	-5.59597
Y	-5.60485
W	-5.62195
H	-5.64108
▁es	-5.64289
X	-5.6539
0	-5.67175
4	-5.6798
3	-5.68072
K	-5.68521
Z	-5.69442
▁un	-5.69533
8	-5.70428
9	-5.70737
6	-5.7186
▁no	-5.72402
2	-5.72784
7	-5.73932
5	-5.74285
Q	-5.76329
1	-5.76354
q	-5.77526
_	-5.82463
▁para	-5.85003
!	-5.89863
▁se	-5.91218
▁los	-5.92255
?	-5.95076
es	-5.96923
▁me	-6.02745
▁del	-6.06525
do	-6.07001
...	-6.0909
la	-6.09902
er	-6.10278
ra	-6.11744
▁A	-6.1303
▁por	-6.13212
ar	-6.13781
▁te	-6.16865
lo	-6.18117
"	-6.20625
te	-6.21149
▁"	-6.21595
le	-6.22568
▁lo	-6.24875
▁re	-6.31711
▁-	-6.33493
▁las	-6.3635
de	-6.37557
▁juego	-6.39022
▁una	-6.41291
▁al	-6.42473
en	-6.48022
▁mi	-6.48559
ri	-6.50069
▁¿	-6.54047
▁si	-6.58569
)	-6.59019
▁El	-6.59217
ro	-6.62936
ca	-6.64664
an	-6.66289
vi	-6.6695
▁ha	-6.67208
da	-6.67859
ma	-6.72172
me	-6.7245
é	-6.73421
▁(	-6.73697
al	-6.74227
no	-6.76022
li	-6.76641
na	-6.77379
el	-6.78505
▁tu	-6.79584
▁su	-6.8121
mi	-6.81854
go	-6.83202
re	-6.84665
▁La	-6.87148
▁más	-6.8801
pa	-6.88024
ci	-6.8919
í	-6.89605
ndo	-6.89674
á	-6.89685
▁C	-6.90694
▁o	-6.90875
mos	-6.91513
▁in	-6.95053
di	-6.95359
as	-6.96803
!!	-6.99573
ba	-7.00161
UAM	-7.0061
ga	-7.00618
ción	-7.02195
ce	-7.02874
mo	-7.03626
ó	-7.03705
▁No	-7.04521
se	-7.05748
os	-7.07495
ja	-7.09859
-	-7.10681
▁¡	-7.10856
▁S	-7.11243
in	-7.13261
ado	-7.1327
▁le	-7.13717
▁como	-7.14801
is	-7.17058
▁P	-7.18878
▁ya	-7.19393
▁pero	-7.23887
▁ca	-7.24297
pe	-7.2444
ve	-7.2519
fi	-7.26136
▁Me	-7.26923
res	-7.27664
ni	-7.27796
or	-7.2828
ía	-7.28888
ir	-7.29449
▁di	-7.30217
▁esta	-7.30885
▁va	-7.32486
je	-7.33818
cu	-7.34641
rá	-7.34831
ru	-7.35439
vo	-7.35722
lu	-7.36706
ita	-7.37162
ido	-7.38086
va	-7.38913
cha	-7.39169
▁c	-7.39898
▁pro	-7.40903
on	-7.41308
ón	-7.41631
ria	-7.41634
idad	-7.42611
que	-7.43313
▁O	-7.43446
YouTube	-7.43595
ia	-7.44422
▁e	-7.45438
▁G	-7.45459
▁ma	-7.456
▁vía	-7.46171
▁vi	-7.46345
du	-7.46901
ando	-7.47401
▁ver	-7.47535
▁Es	-7.4757
La	-7.481
jo	-7.485
bo	-7.48826
un	-7.48934
▁este	-7.4943
▁T	-7.49432
nd	-7.49522
▁En	-7.49786
▁com	-7.50482
▁pa	-7.50814
mp	-7.51605
ne	-7.52419
be	-7.53722
bi	-7.53918
▁V	-7.54221
▁F	-7.54276
nta	-7.54623
za	-7.55551
▁2	-7.55613
▁E	-7.56004
▁mejor	-7.56652
si	-7.56849
ver	-7.57499
;	-7.57507
sta	-7.58133
ito	-7.59201
les	-7.59248
ero	-7.59341
▁Se	-7.61013
ría	-7.6228
▁Ma	-7.63061
pi	-7.63083
▁nuevo	-7.63519
gu	-7.63623
tro	-7.6455
▁pe	-7.64879
▁está	-7.64961
▁todo	-7.65752
▁yo	-7.65858
▁Si	-7.6596
▁son	-7.66181
▁cu	-7.66199
mente	-7.66246
▁ser	-7.6641
▁B	-7.66467
ña	-7.66552
ina	-7.67754
▁De	-7.67913
▁PC	-7.68101
'	-7.68983
il	-7.6961
qui	-7.69681
ño	-7.69685
▁Y	-7.69918
▁mo	-7.70161
▁po	-7.70487
▁hay	-7.71037
▁Un	-7.71173
nos	-7.71298
▁Re	-7.7165
tos	-7.71868
ciones	-7.72055
po	-7.72058
▁3	-7.72526
▁|	-7.72802
iendo	-7.72881
▁pre	-7.72983
gi	-7.73362
zo	-7.73586
OS	-7.75776
cia	-7.76194
▁Los	-7.76306
ol	-7.77386
▁ex	-7.77932
El	-7.77947
ha	-7.78448
▁hace	-7.78474
▁Mi	-7.78901
ER	-7.79618
00	-7.79648
cho	-7.79672
▁hacer	-7.80158
ú	-7.80536
ll	-7.80806
rte	-7.80916
▁qué	-7.81347
▁1	-7.81636
ge	-7.81755
ación	-7.82146
ada	-7.82184
▁sin	-7.82438
ic	-7.82746
io	-7.82877
▁&	-7.83321
▁sobre	-7.83324
ul	-7.83558
▁Ca	-7.84635
der	-7.84735
▁ni	-7.84933
rio	-7.85002
▁So	-7.85304
gra	-7.85829
▁Que	-7.86342
▁per	-7.86561
encia	-7.86703
▁pi	-7.86807
▁día	-7.87154
▁cuando	-7.87583
cto	-7.87735
▁I	-7.87738
▁he	-7.88089
▁todos	-7.88347
▁M	-7.88688
era	-7.88894
ES	-7.88909
tal	-7.89445
ez	-7.8946
cer	-7.89691
ho	-7.89709
▁bien	-7.89882
amos	-7.9021
▁gracias	-7.90284
▁Te	-7.91412
▁ba	-7.91504
tas	-7.92528
▁.@	-7.92808
ie	-7.9294
lle	-7.94025
ck	-7.94061
ch	-7.94191
▁ju	-7.94222
11	-7.94622
per	-7.94679
▁tiene	-7.94721
No	-7.95245
EN	-7.95421
▁ve	-7.95701
che	-7.95701
▁puede	-7.95908
dos	-7.96418
▁Con	-7.96537
▁ti	-7.97227
Ma	-7.97422
ur	-7.97474
nti	-7.97941
us	-7.97983
ran	-7.98242
▁muy	-7.98532
ente	-7.99083
▁hoy	-7.99222
ros	-7.99922
▁mal	-8.00315
ida	-8.00496
▁gusta	-8.0053
ste	-8.00585
los	-8.01077
▁PP	-8.0108
fe	-8.0166
▁llega	-8.02146
nte	-8.02525
!!!	-8.02738
am	-8.02975
▁mas	-8.03011
sto	-8.03094
bu	-8.03694
ing	-8.03771
las	-8.04363
▁da	-8.04612
▁Lo	-8.04845
ue	-8.04956
▁España	-8.0685
▁Android	-8.06887
ica	-8.07001
sión	-8.07244
▁mucho	-8.07263
▁eso	-8.07378
▁mu	-8.07439
▁tengo	-8.07563
▁ahora	-8.08229
min	-8.09246
▁10	-8.09817
▁Pa	-8.09921
AR	-8.10092
Madrid	-8.10172
▁d	-8.10456
▁so	-8.10604
▁sus	-8.10642
▁porque	-8.10811
▁nos	-8.10906
http	-8.11149
▁sal	-8.11563
▁Ya	-8.11574
▁Google	-8.11653
ad	-8.11736
mb	-8.11778
dia	-8.12149
ke	-8.12351
▁DE	-8.13253
lla	-8.14336
▁Ha	-8.14479
ki	-8.14722
ras	-8.14887
he	-8.15301
fa	-8.15975
▁In	-8.16624
hi	-8.16923
OR	-8.17
▁video	-8.17014
AS	-8.17088
RE	-8.17144
/0	-8.17278
▁vida	-8.18121
▁gente	-8.18302
man	-8.185
▁xD	-8.18925
ron	-8.19045
rma	-8.19097
▁años	-8.19369
ante	-8.19468
▁pasa	-8.19571
ana	-8.19925
AN	-8.19966
▁ro	-8.20215
TE	-8.2029
De	-8.2031
/8	-8.20438
tor	-8.20625
*	-8.21027
▁voy	-8.21064
@	-8.21144
▁Esta	-8.21377
ig	-8.21544
En	-8.21869
▁4	-8.21996
sanchezcastejon	-8.22182
ven	-8.22599
gen	-8.22909
▁par	-8.22912
por	-8.23269
▁contra	-8.23631
▁Gracias	-8.23642
RA	-8.23728
cas	-8.24155
▁Di	-8.24745
Ju	-8.25111
▁hi	-8.25218
men	-8.25231
▁q	-8.25259
▁nada	-8.2548
pu	-8.25486
des	-8.25787
ber	-8.25789
▁bo	-8.25816
▁pc	-8.26238
das	-8.26293
cri	-8.26714
eta	-8.26793
tura	-8.26858
Es	-8.26909
▁solo	-8.26915
▁Las	-8.26957
ed	-8.27138
▁Co	-8.27631
▁Hoy	-8.27661
dio	-8.27703
▁5	-8.27829
▁mañana	-8.28031
▁bueno	-8.28175
▁f	-8.28226
▁pu	-8.28544
▁20	-8.2874
▁desde	-8.2887
▁quiere	-8.28996
▁Al	-8.29012
▁jajaja	-8.29678
pp	-8.29716
TA	-8.29792
▁dia	-8.29794
▁—	-8.29871
gue	-8.30016
án	-8.30136
Qué	-8.30534
/4	-8.3059
ncia	-8.30628
▁entre	-8.30919
▁favor	-8.31098
/3	-8.31218
tiva	-8.31252
tica	-8.31527
▁Este	-8.31583
tre	-8.31698
▁'	-8.32075
(	-8.32402
lar	-8.32534
um	-8.32728
tivo	-8.32909
lt	-8.33009
ble	-8.33131
fo	-8.33217
/2	-8.33408
illa	-8.33477
▁H	-8.33521
car	-8.33693
▁fue	-8.33704
nu	-8.33775
gui	-8.33864
▁vez	-8.33941
Ca	-8.34059
▁li	-8.34286
▁nuestro	-8.34682
mar	-8.34731
nto	-8.34976
▁Yo	-8.34991
ec	-8.35004
▁días	-8.35385
Me	-8.35391
/6	-8.35476
/7	-8.35754
▁Minecraft	-8.35968
▁to	-8.36131
▁también	-8.36155
Mi	-8.36318
/5	-8.36417
esta	-8.36452
▁vídeo	-8.36901
ces	-8.37024
Se	-8.38141
https	-8.38189
Por	-8.38472
▁estoy	-8.38521
dores	-8.38542
▁dis	-8.38656
xi	-8.38727
pre	-8.38875
rios	-8.38916
.-	-8.38975
▁Le	-8.39284
▁Mu	-8.39465
▁ho	-8.39466
ista	-8.39483
▁hasta	-8.39618
▁Por	-8.39871
30	-8.40029
bra	-8.40264
par	-8.4037
TO	-8.40406
▁semana	-8.40412
AL	-8.40967
▁tra	-8.40973
LO	-8.41012
remos	-8.41128
yo	-8.4126
/9	-8.41645
Pa	-8.41869
▁noche	-8.42041
14	-8.42202
Re	-8.42377
▁mis	-8.42538
]	-8.42594
UE	-8.42773
▁fi	-8.42928
▁esto	-8.43464
uro	-8.43617
▁foto	-8.43772
▁fin	-8.43959
▁Más	-8.44219
ados	-8.44337
▁Apple	-8.44344
cion	-8.44648
dor	-8.44837
pon	-8.44872
▁mar	-8.44942
▁quiero	-8.45489
rd	-8.4549
¿	-8.45938
▁han	-8.46291
▁tan	-8.46368
So	-8.46618
▁ga	-8.46647
nsa	-8.46706
Lo	-8.46763
cio	-8.46917
ima	-8.47029
▁jaja	-8.47123
cal	-8.47516
▁menos	-8.47543
rre	-8.47574
▁aquí	-8.47581
ien	-8.47733
dad	-8.47907
bre	-8.47954
▁nueva	-8.48464
ré	-8.48488
▁fe	-8.48642
PSOE	-8.48672
▁Hola	-8.48842
▁[	-8.48959
ya	-8.49015
▁siempre	-8.49138
▁cambio	-8.492
▁fa	-8.49778
▁política	-8.49817
▁L	-8.49863
RO	-8.49879
IN	-8.50253
▁ra	-8.506
mas	-8.50603
ye	-8.50603
▁mundo	-8.50661
▁directo	-8.50681
%	-8.51188
▁RT	-8.51234
for	-8.51267
▁algo	-8.5129
Te	-8.51292
Co	-8.51471
▁imp	-8.51525
/1	-8.51891
▁ta	-8.52594
▁can	-8.52937
ual	-8.5301
ario	-8.53255
▁ir	-8.53303
gt	-8.53807
ay	-8.53904
Al	-8.54305
▁tiempo	-8.54343
gar	-8.54417
▁gana	-8.54427
▁Madrid	-8.54493
mor	-8.54831
lan	-8.54877
marianorajoy	-8.54879
▁así	-8.55032
ju	-8.55087
end	-8.55127
ON	-8.55213
lic	-8.55367
”	-8.55597
rme	-8.55754
oto	-8.55897
▁“	-8.56008
19	-8.56108
Ch	-8.5633
▁Juego	-8.56909
llo	-8.57087
▁primer	-8.57109
▁ven	-8.57299
▁dos	-8.57437
.#	-8.57601
▁programa	-8.57786
ismo	-8.58721
gua	-8.59049
emos	-8.59088
wi	-8.59348
▁espera	-8.59388
▁24	-8.59816
▁jugar	-8.59881
;3	-8.60033
▁Pe	-8.60041
IS	-8.60128
mu	-8.60345
Pablo	-8.60793
ee	-8.61047
▁EL	-8.61103
CI	-8.61151
im	-8.61326
erto	-8.61647
▁dice	-8.62279
RI	-8.62369
den	-8.62455
▁na	-8.62512
▁Po	-8.62539
▁...	-8.62701
rro	-8.629
fica	-8.63078
▁otro	-8.63182
▁sabe	-8.63387
ega	-8.63443
▁hu	-8.6347
Feliz	-8.63482
▁2015	-8.63795
TI	-8.63892
su	-8.64032
ici	-8.64046
▁nuestra	-8.64061
25	-8.64146
ka	-8.6423
▁ne	-8.64539
▁cal	-8.64592
▁He	-8.64601
▁mismo	-8.64659
▁Ba	-8.64789
muchas	-8.65103
▁To	-8.65293
▁soy	-8.65911
▁car	-8.66295
▁Vi	-8.66319
▁Na	-8.66445
cen	-8.66678
rea	-8.66945
ata	-8.66957
able	-8.67493
gre	-8.68071
microsiervos	-8.6827
.—	-8.68365
rra	-8.69189
LE	-8.69244
▁U	-8.69244
LA	-8.6958
▁cosas	-8.69848
JA	-8.69948
▁era	-8.69991
ng	-8.70036
Ro	-8.70221
▁..	-8.70552
▁Mo	-8.70729
▁social	-8.70965
ambio	-8.71113
▁uno	-8.71188
▁:(	-8.71432
▁chi	-8.71481
▁Su	-8.71582
▁cuenta	-8.71603
ntes	-8.71685
tico	-8.71768
▁lleva	-8.71819
▁sub	-8.72015
▁igual	-8.72026
▁poco	-8.72086
Ru	-8.72227
▁mira	-8.72768
itu	-8.72988
mbre	-8.73008
▁Li	-8.7318
▁buena	-8.73491
ales	-8.73623
▁tener	-8.73782
chi	-8.73806
Que	-8.73871
▁año	-8.73946
em	-8.74047
2015	-8.74069
Buen	-8.74087
..#	-8.74114
▁}:	-8.74392
Lu	-8.744
cul	-8.74512
▁sí	-8.74613
▁Una	-8.74699
igo	-8.74817
fu	-8.74895
▁PSOE	-8.74997
ine	-8.75111
Si	-8.75165
▁país	-8.75275
mento	-8.75349
+	-8.75403
gan	-8.75415
▁fu	-8.75497
▁cre	-8.75555
CO	-8.75688
▁forma	-8.75941
ato	-8.75978
ento	-8.76079
▁pri	-8.76247
ones	-8.76416
&	-8.76503
ena	-8.76532
▁NO	-8.7657
▁partido	-8.76594
IC	-8.77001
Ha	-8.77151
▁canal	-8.77184
rado	-8.77423
anza	-8.77503
▁otra	-8.77863
10	-8.77957
▁Va	-8.78018
▁crea	-8.78103
curso	-8.78186
menta	-8.78264
Con	-8.78495
▁Ne	-8.7892
tin	-8.78939
MA	-8.79032
MO	-8.79294
Iglesias	-8.79296
ex	-8.79929
▁personas	-8.79993
iza	-8.80164
▁pen	-8.80302
fer	-8.80361
▁casa	-8.80545
▁estar	-8.80862
▁Cu	-8.80909
▁LA	-8.81283
▁perfecto	-8.82313
▁habla	-8.82357
▁salud	-8.82423
nio	-8.82487
▁Ja	-8.82554
ii	-8.82589
ura	-8.82691
ster	-8.82696
iste	-8.82758
20	-8.82879
▁espero	-8.83042
hu	-8.83088
▁problema	-8.8326
oo	-8.83556
pro	-8.83702
▁queda	-8.83716
NA	-8.8377
iz	-8.83929
PE	-8.83952
son	-8.8404
CA	-8.8426
▁puedes	-8.84403
▁Ra	-8.84489
nes	-8.84839
uda	-8.85013
▁donde	-8.85182
▁eres	-8.85257
▁presenta	-8.85424
▁Des	-8.8543
▁verdad	-8.85512
▁man	-8.85597
▁personalizado	-8.85667
rri	-8.85743
Cu	-8.85745
MI	-8.858
Un	-8.86006
entes	-8.86186
▁compra	-8.86193
anda	-8.86678
can	-8.87094
▁pie	-8.87403
▁Wi	-8.87498
erra	-8.87553
▁Así	-8.87681
cción	-8.8771
ador	-8.87911
illo	-8.88039
Sa	-8.88133
▁ES	-8.88517
▁llama	-8.8868
▁antes	-8.88799
miento	-8.88917
rece	-8.89148
ió	-8.89248
To	-8.89285
▁toda	-8.89442
▁Mar	-8.89548
▁seguir	-8.89562
▁dar	-8.8969
cional	-8.8982
▁g	-8.90089
▁móvil	-8.9015
ren	-8.90161
cre	-8.9025
😂	-8.90406
▁debe	-8.90489
▁vota	-8.90631
▁amigo	-8.90678
▁Cómo	-8.90761
II	-8.90843
▁gran	-8.90979
▁Rajoy	-8.91227
ino	-8.91391
ás	-8.91728
▁Ro	-8.91982
wa	-8.9203
bro	-8.92154
ierrejon	-8.9221
rse	-8.92216
PS	-8.92249
▁nunca	-8.9247
¡	-8.92537
▁hecho	-8.92592
▁Com	-8.92808
▁algun	-8.92863
▁están	-8.92922
▁gobierno	-8.92993
▁EN	-8.93048
▁Ahora	-8.93257
amp	-8.93419
one	-8.93455
esti	-8.93521
▁Do	-8.93719
lado	-8.93899
Ho	-8.93934
iente	-8.94372
13	-8.94666
ff	-8.94781
▁trabaja	-8.94845
▁sol	-8.95
▁amor	-8.95242
▁cómo	-8.95381
▁persona	-8.95913
ForoC	-8.96189
▁fans	-8.9624
imos	-8.96241
Á	-8.9646
Ciencia	-8.96487
icos	-8.96504
ona	-8.96605
▁Seguridad	-8.96732
ible	-8.96939
▁dormir	-8.97004
▁Ho	-8.97081
Yo	-8.97245
Game	-8.97593
ide	-8.97675
adas	-8.97952
▁Pre	-8.98049
".	-8.98149
nica	-8.98273
▁Pro	-8.98417
▁parece	-8.98455
15	-8.98469
▁primera	-8.98589
▁hora	-8.98654
mon	-8.98748
▁millones	-8.98933
▁Mañana	-8.98933
▁guste	-8.98937
▁6	-8.99098
Li	-8.99118
▁asi	-8.99194
fra	-8.9948
▁puedo	-8.99494
Mo	-8.99571
▁usa	-9.00002
▁decir	-9.00156
24	-9.00161
enda	-9.00184
▁Jo	-9.00609
▁quien	-9.00915
▁go	-9.01085
anto	-9.01187
16	-9.01503
▁Para	-9.0152
▁falta	-9.01619
▁buen	-9.01662
SI	-9.01671
▁vamos	-9.01783
▁Bo	-9.01804
▁plan	-9.01858
▁cada	-9.0203
▁Cuando	-9.02118
▁sea	-9.02146
▁tanto	-9.02262
▁será	-9.02263
▁inter	-9.02704
istas	-9.02746
▁pregunta	-9.02905
▁QUE	-9.02921
ban	-9.03048
12	-9.03246
In	-9.03545
▁momento	-9.03549
▁Pero	-9.03823
eja	-9.03971
TV	-9.03988
US	-9.04212
▁Gobierno	-9.04363
cula	-9.04433
itos	-9.04455
17	-9.04608
▁trabajo	-9.04657
▁mejores	-9.04694
play	-9.04801
▁Todo	-9.04878
Mar	-9.05033
nia	-9.05168
▁Ni	-9.05187
▁real	-9.05276
▁ese	-9.0561
CH	-9.05651
LI	-9.05658
mm	-9.05929
▁podría	-9.0619
▁grande	-9.06277
cina	-9.06321
▁creo	-9.06324
VI	-9.06627
▁Pu	-9.06706
▁sigue	-9.06775
▁busca	-9.07067
▁sa	-9.07078
rica	-9.07189
jos	-9.07253
▁todas	-9.0732
chemaalonso	-9.07343
▁ayuda	-9.07352
Le	-9.07473
jajaja	-9.07528
▁:)	-9.07619
éis	-9.07974
▁empleo	-9.08068
▁ob	-9.08239
Fu	-9.08311
rán	-9.08357
▁final	-9.08419
▁tienes	-9.08438
▁Lu	-9.08809
by	-9.09291
tion	-9.09431
sion	-9.09552
puesto	-9.09573
Po	-9.09622
▁Buenos	-9.09729
▁futuro	-9.09795
▁vos	-9.09965
▁Ex	-9.10004
▁pod	-9.10017
vuel	-9.10069
▁Da	-9.10106
▁entra	-9.10656
▁encanta	-9.10736
▁emp	-9.10859
▁les	-9.10877
▁sido	-9.11247
oooo	-9.11291
icio	-9.11312
▁os	-9.1152
bilidad	-9.1172
▁8	-9.11813
game	-9.11887
UniDeVerano	-9.11988
Mu	-9.12031
▁Bi	-9.12106
▁The	-9.12159
99	-9.12378
▁unos	-9.12476
▁Sa	-9.12658
▁Podemos	-9.12714
▁Fe	-9.12887
▁jajajaja	-9.12887
▁feliz	-9.12945
▁horas	-9.12952
▁acaba	-9.13015
ere	-9.13276
▁Fi	-9.13454
ciencia	-9.1347
▁PS	-9.13475
lin	-9.13497
▁tú	-9.13587
▁One	-9.13676
siones	-9.13716
▁K	-9.14095
▁auto	-9.14128
ñ	-9.1465
▁deja	-9.14874
▁tarde	-9.14893
▁bi	-9.14951
▁tienen	-9.1527
▁poner	-9.15306
idades	-9.15511
▁funciona	-9.15867
▁Play	-9.1588
▁cie	-9.16001
juego	-9.16003
imiento	-9.16064
▁historia	-9.16197
ack	-9.16229
más	-9.16355
nce	-9.16704
▁Be	-9.1683
▁sólo	-9.1686
▁15	-9.16952
toria	-9.17136
▁cara	-9.17322
▁tri	-9.17469
▁toma	-9.17542
▁12	-9.1757
▁estamos	-9.17572
Los	-9.17786
▁Fa	-9.18127
»	-9.18199
▁extra	-9.1829
01	-9.18398
▁info	-9.18629
Cómo	-9.18748
▁tenemos	-9.18881
bel	-9.19092
▁Ta	-9.19128
Í	-9.19216
ger	-9.19485
▁Ga	-9.19606
▁mí	-9.20107
bar	-9.20236
▁Windows	-9.20244
bla	-9.20612
777	-9.20622
▁hombre	-9.20974
▁Tra	-9.21274
▁Esto	-9.21353
puta	-9.21548
▁Grecia	-9.21746
ín	-9.21836
▁necesita	-9.22331
▁«	-9.22399
▁trans	-9.22471
▁sab	-9.22476
▁Ti	-9.22795
23	-9.22796
ector	-9.23047
▁genera	-9.23398
▁tras	-9.2343
60	-9.23466
▁corre	-9.23594
suscríbete	-9.23747
▁Samsung	-9.23747
▁Hi	-9.23786
▁viene	-9.24151
Apple	-9.24843
▁realidad	-9.24963
gún	-9.24984
▁super	-9.25364
Car	-9.25445
▁participa	-9.25545
▁MA	-9.2569
▁euros	-9.25916
The	-9.2593
▁agua	-9.26082
♥	-9.26274
▁Esper	-9.26335
▁desp	-9.26376
▁visto	-9.265
▁san	-9.26503
Tuit	-9.26538
▁poder	-9.26627
uela	-9.26655
▁bu	-9.26896
arte	-9.26979
▁nadie	-9.27034
▁vol	-9.27358
▁alguien	-9.27378
ío	-9.27711
▁volver	-9.27815
▁+	-9.2789
▁saber	-9.28329
▁parte	-9.28434
▁MI	-9.28445
▁13	-9.2872
▁tal	-9.2881
▁debería	-9.28949
pablocasado	-9.2962
▁escucha	-9.29622
WillyrexYT	-9.29999
▁después	-9.29999
▁7	-9.30073
cido	-9.30105
▁veces	-9.30108
▁idea	-9.30152
ejo	-9.30189
aaa	-9.30809
osa	-9.31691
▁pues	-9.31807
▁minutos	-9.31915
▁reforma	-9.31917
▁of	-9.31943
TrabajarHacerCre	-9.32302
▁bonito	-9.32305
▁UN	-9.32365
▁cap	-9.32587
vegetta	-9.32691
▁familia	-9.32691
▁Europa	-9.32691
▁hablar	-9.32833
▁Tu	-9.33004
▁proyecto	-9.33084
▁gustado	-9.33184
▁pone	-9.33399
eto	-9.33816
▁bar	-9.33916
▁saca	-9.34115
unque	-9.34272
▁español	-9.34383
fre	-9.34647
▁seguro	-9.34903
hemos	-9.3519
▁Bueno	-9.35221
aaaa	-9.35261
▁Como	-9.35546
▁Car	-9.35661
chu	-9.35731
▁Nuevo	-9.3586
▁grab	-9.35876
Hu	-9.36103
▁último	-9.36263
▁fal	-9.36267
▁lanza	-9.36371
▁tenga	-9.36411
▁San	-9.36768
▁Pi	-9.36843
▁conoce	-9.37086
▁pasado	-9.37095
▁Hay	-9.37694
▁ps	-9.3772
entra	-9.37838
ota	-9.38484
eeee	-9.38547
▁Jajaja	-9.38708
▁estaba	-9.38775
▁sistema	-9.39134
izar	-9.3935
27	-9.39363
▁baja	-9.3947
▁domingo	-9.39549
▁ME	-9.39555
oficial	-9.39564
And	-9.39767
▁mayor	-9.39922
▁libro	-9.40022
jaja	-9.40119
▁punto	-9.40477
culo	-9.40557
▁somos	-9.40774
▁youtube	-9.41233
▁haga	-9.41495
▁paso	-9.41507
▁lindo	-9.41593
ben	-9.41846
dida	-9.42328
▁Gu	-9.42452
▁dejar	-9.42457
▁Pues	-9.42769
video	-9.43037
▁voto	-9.43512
▁sé	-9.43516
▁fuera	-9.43528
ieron	-9.43781
▁comer	-9.43923
€	-9.4425
▁equipo	-9.44251
▁cambiar	-9.44757
▁casi	-9.44842
▁Mod	-9.45065
▁medio	-9.45102
!!!!	-9.45177
▁ganar	-9.45251
▁mano	-9.45337
💬	-9.45572
▁lunes	-9.45576
▁estudia	-9.45579
▁explica	-9.45611
▁Aquí	-9.45752
Quieres	-9.46017
Util	-9.46116
▁mujeres	-9.46236
É	-9.46463
▁echa	-9.46678
▁empresa	-9.46917
▁sale	-9.46989
seguro	-9.47342
▁SE	-9.47431
▁paga	-9.47459
uam	-9.4762
▁coche	-9.48076
Juan	-9.48166
President	-9.4827
▁JUEGO	-9.48686
Gobernar	-9.48725
▁Twitter	-9.48726
ight	-9.48757
▁elecciones	-9.49185
▁podemos	-9.49214
▁SI	-9.49272
▁jajajajaja	-9.49629
▁chica	-9.49669
▁clase	-9.49671
▁lista	-9.50034
▁ciudad	-9.50107
▁nosotros	-9.50108
ática	-9.50608
▁termina	-9.51043
▁mientras	-9.51045
▁claro	-9.51048
▁trata	-9.51322
▁genial	-9.51511
▁hijos	-9.51558
▁toca	-9.52606
▁seguirme	-9.52689
ambi	-9.5278
▁pierdas	-9.52933
▁Ri	-9.53288
▁web	-9.53414
0.000	-9.54389
▁padre	-9.54444
▁estado	-9.5462
▁disponible	-9.54859
=	-9.5486
▁electoral	-9.54867
▁partir	-9.5487
▁cerebro	-9.55347
▁datos	-9.55598
▁corrupción	-9.55837
▁acuerdo	-9.55838
nova	-9.55945
▁estará	-9.55949
plica	-9.56037
▁tipo	-9.56118
▁CA	-9.56124
ooo	-9.56229
iPhone	-9.5633
ología	-9.56334
ñe	-9.56598
▁Día	-9.56609
;&	-9.56939
Com	-9.57296
JAJAJ	-9.57361
▁prepara	-9.57428
unda	-9.57428
▁posible	-9.57825
king	-9.58098
▁salir	-9.58157
▁Tengo	-9.58333
▁peor	-9.58617
▁siento	-9.58657
▁teléfono	-9.5883
▁pase	-9.5895
control	-9.59072
para	-9.591
2016	-9.59321
▁haciendo	-9.59343
▁Wa	-9.60067
▁españoles	-9.60206
▁Vamos	-9.60436
▁ARK	-9.60443
▁Microsoft	-9.60876
▁actualiza	-9.60885
▁Mon	-9.60942
▁Gran	-9.61255
▁político	-9.61394
▁servicio	-9.61395
▁breve	-9.614
JAJAJAJA	-9.61896
▁Buenas	-9.61923
Orgullo	-9.62439
▁Black	-9.6244
derecho	-9.62631
arse	-9.62761
▁Sí	-9.62895
ección	-9.62935
▁pantalla	-9.62965
▁dinero	-9.63501
Ñ	-9.64026
grafía	-9.64028
▁sueño	-9.64031
iano	-9.64059
▁derechos	-9.64096
▁Sal	-9.64195
▁cualquier	-9.64561
iiii	-9.64675
España	-9.64741
grado	-9.64782
▁próximo	-9.65099
▁madre	-9.65132
▁compa	-9.65654
▁verano	-9.65671
Estoy	-9.65921
▁mon	-9.66169
▁serie	-9.66751
▁haber	-9.66755
▁tuit	-9.66881
▁digo	-9.66979
▁ayer	-9.66994
Curso	-9.67305
▁For	-9.67726
▁tweet	-9.67831
jajja	-9.68305
▁Facebook	-9.68386
▁mierda	-9.68396
▁Quiero	-9.68945
destacad	-9.6898
▁dijo	-9.69057
▁mujer	-9.6924
▁CON	-9.69919
Javi	-9.6996
▁ordenador	-9.70072
▁gratis	-9.70072
▁caso	-9.70167
▁duran	-9.70174
▁cabeza	-9.70641
Hasta	-9.70676
▁miedo	-9.707
▁aún	-9.70703
PPopular	-9.71212
▁Xbox	-9.71212
quí	-9.71484
▁cumple	-9.71743
▁Internet	-9.71786
▁disfrut	-9.71786
▁lucha	-9.71805
▁importante	-9.71967
▁precio	-9.71985
Manuel	-9.72124
▁vaya	-9.72302
▁seguridad	-9.72366
▁conmigo	-9.72378
▁suerte	-9.72404
▁tres	-9.72556
▁usted	-9.72953
▁PARA	-9.72956
▁Star	-9.73073
Tiene	-9.73308
▁meses	-9.73353
Podemos	-9.73367
▁mesa	-9.73428
▁película	-9.7353
!!!!!	-9.73741
▁(@	-9.74081
▁mayoría	-9.74217
▁iOS	-9.74241
▁cosa	-9.74299
–	-9.7471
▁luego	-9.74711
▁Jajajaja	-9.74912
▁manda	-9.74929
▁único	-9.75306
▁descarga	-9.75308
inclu	-9.75583
Social	-9.75701
▁importa	-9.75717
▁palabra	-9.75905
▁Voy	-9.75969
▁interesa	-9.76095
▁democracia	-9.76507
▁carga	-9.76729
▁cree	-9.7686
Jose	-9.76963
MINECRAFT	-9.77113
▁público	-9.77113
▁especial	-9.77113
▁Saludos	-9.77113
▁ahí	-9.77193
▁Episodio	-9.77723
▁segundo	-9.77726
▁él	-9.78471
ADO	-9.78488
Conoce	-9.78863
VotaPP	-9.78953
▁apoyo	-9.78956
▁compañe	-9.78963
hFa	-9.79415
▁compart	-9.79553
^	-9.79574
▁resulta	-9.79575
misión	-9.79597
#	-9.79732
▁versión	-9.79908
▁pueblo	-9.802
▁entrevista	-9.80201
▁lugar	-9.80208
▁Sigue	-9.80429
tecnología	-9.80829
▁amiga	-9.80856
▁junto	-9.81033
elFuturodeEspaña	-9.81461
▁follow	-9.81461
▁griego	-9.81461
▁intenta	-9.81465
▁luz	-9.81603
▁LOS	-9.8175
▁grupo	-9.82099
Lunes	-9.8216
▁cambia	-9.82665
ización	-9.82714
▁Galaxy	-9.82739
▁pública	-9.82739
▁goberna	-9.8274
▁espacio	-9.82741
cuesta	-9.82772
Primer	-9.82773
▁empieza	-9.83385
▁cumpl	-9.83469
olución	-9.83702
▁campaña	-9.84034
▁viernes	-9.84034
▁quiera	-9.84047
▁GTA	-9.84384
▁encontrar	-9.84647
▁corazón	-9.84688
▁empezar	-9.84688
▁actua	-9.85398
▁smartphone	-9.86008
▁anuncia	-9.86009
Verano	-9.8602
internet	-9.86136
▁última	-9.86674
▁propuesta	-9.86674
▁mensaje	-9.86675
▁tendrá	-9.86682
▁Porque	-9.86942
uuu	-9.86951
▁publica	-9.87243
quito	-9.87256
Latch	-9.87304
▁celebra	-9.87346
▁vistazo	-9.87346
▁había	-9.87354
segur	-9.87546
ALevySoler	-9.88021
▁instala	-9.88047
▁viendo	-9.88131
▁venta	-9.88132
Congreso	-9.88703
▁cierto	-9.88714
▁cerca	-9.88765
▁record	-9.88776
Video	-9.88877
▁votada	-9.89059
▁aplicaciones	-9.89387
▁crisis	-9.89387
▁modelo	-9.89393
▁debate	-9.89465
▁podrá	-9.89482
▁música	-9.90076
▁jejej	-9.90077
Ó	-9.9077
$	-9.9077
▁DIRECTO	-9.9077
▁Descubre	-9.9077
▁jóvenes	-9.9077
▁libertad	-9.9077
Nunca	-9.90777
️	-9.9147
▁virtual	-9.9147
▁estudio	-9.9147
▁vacaciones	-9.91471
▁jugando	-9.91473
▁pueda	-9.9149
▁iba	-9.91676
Rafa	-9.91908
▁noticia	-9.92176
Irene	-9.92192
▁libre	-9.92312
Estamos	-9.92476
▁izquierda	-9.92883
Empleo	-9.92883
▁beta	-9.92983
Informático	-9.93598
▁cámara	-9.93598
▁gustó	-9.93598
▁galletas	-9.93598
▁acceso	-9.93598
▁anima	-9.93709
▁recuperación	-9.94399
▁existe	-9.94461
▁esté	-9.94971
▁Gameplay	-9.95042
▁tenía	-9.95074
▁socialistas	-9.95086
Tenemos	-9.95094
▁rato	-9.95125
▁manera	-9.95194
algún	-9.95334
madrid	-9.95772
▁ciudadanos	-9.95773
▁felicidad	-9.95773
▁aumenta	-9.95789
▁dentro	-9.95934
estudiantes	-9.96496
▁aplicación	-9.96508
Europe	-9.96516
???	-9.96543
▁vuelve	-9.96544
▁encontr	-9.9658
▁duda	-9.96801
qué	-9.97041
Dowrow	-9.97248
▁Comienza	-9.97248
Montero	-9.97259
▁vivir	-9.97312
Queremos	-9.97674
▁conferencia	-9.97994
Domingo	-9.97996
▁fuerza	-9.97998
emporada	-9.97999
Grecia	-9.98501
MTVHottest	-9.98746
▁información	-9.98746
▁friki	-9.98747
▁visita	-9.98773
▁Mejor	-9.98799
QUI	-9.98883
angel	-9.99284
JavierMaroto	-9.99503
▁prueba	-9.99503
▁Super	-9.99648
▁mata	-9.99962
▁Nuestro	-10.0027
▁color	-10.0069
posición	-10.0107
Gracias	-10.0164
Juego	-10.0164
▁informático	-10.0181
▁número	-10.0181
▁leída	-10.0181
▁linda	-10.0185
ienta	-10.0227
Rajoy	-10.0243
▁fácil	-10.0259
▁olvida	-10.0259
scripción	-10.0259
▁devuelvo	-10.0259
▁permite	-10.026
▁vuelta	-10.026
▁pensar	-10.0264
▁error	-10.0266
▁quién	-10.0338
▁señor	-10.0368
Enhorabuena	-10.0417
Ú	-10.0417
▁^^	-10.0417
▁empiece	-10.0417
Rubiu	-10.0418
▁ocurr	-10.0421
Info	-10.0442
▁recupera	-10.0488
▁Sánchez	-10.0497
▁profesor	-10.0497
Máster	-10.0501
plaza	-10.0565
Alex	-10.057
▁oportunidad	-10.0578
▁organiza	-10.0578
▁usuario	-10.0659
▁diferencia	-10.0659
▁afecta	-10.0659
▁imagen	-10.066
ParaLaMayoría	-10.0741
bysTaXx	-10.0741
▁Nueva	-10.0741
▁online	-10.0741
▁riesgo	-10.0741
pnique	-10.0742
▁ofrece	-10.0745
direct	-10.0783
▁próxima	-10.0824
▁sociedad	-10.0824
▁utiliza	-10.0824
▁tambien	-10.0824
Debate	-10.0826
view	-10.0839
▁ministro	-10.0907
▁levanta	-10.0907
▁jugado	-10.0918
ü	-10.0991
▁clave	-10.0992
▁nivel	-10.0995
Angel	-10.1001
CALI	-10.1008
▁objetivo	-10.1076
dzilY	-10.1076
▁abierto	-10.1076
▁Creo	-10.1079
mdcospedal	-10.1161
▁bloque	-10.1162
▁cultura	-10.1162
▁café	-10.1162
▁Muchas	-10.1162
comentada	-10.1163
▁papel	-10.1166
▁llora	-10.1174
Internacional	-10.1248
AHernandoVera	-10.1248
’	-10.1248
▁Carmena	-10.1248
▁frente	-10.1249
▁camino	-10.1249
▁acabo	-10.125
▁invita	-10.1251
▁quita	-10.1264
▁Universidad	-10.1335
▁Siempre	-10.1335
▁única	-10.1335
▁propio	-10.1336
Cuál	-10.1337
▁normal	-10.1341
aaaaaaa	-10.1352
▁aprender	-10.1422
▁instituciones	-10.1422
▁sentido	-10.1423
▁gusto	-10.1424
Miguel	-10.1426
ahorapodemos	-10.1511
Recuerda	-10.1511
▁éxito	-10.1511
gadget	-10.1511
▁Programa	-10.1511
▁oferta	-10.1511
▁recibi	-10.1516
Barcelona	-10.16
Cospedal	-10.16
Gabilondo	-10.16
▁entonces	-10.16
▁descubr	-10.1601
¡¡	-10.1601
RdPPodemos	-10.169
RutaDelCambio	-10.169
▁dolor	-10.1692
?..—	-10.1693
▁Garry	-10.1781
▁ningun	-10.1781
▁batería	-10.1781
▁regala	-10.1789
digoSIvotoPSOE	-10.1873
▁económica	-10.1873
▁primarias	-10.1873
▁rápido	-10.1873
▁pequeño	-10.1873
▁bonita	-10.1966
▁apoya	-10.1968
▁valor	-10.2014
Biblioteca	-10.2059
▁sTaXx	-10.2059
▁medidas	-10.2061
FelizMiercoles	-10.2153
▁código	-10.2153
▁peligro	-10.2153
▁ciudadanía	-10.2153
▁pedir	-10.216
▁corta	-10.2164
Busca	-10.2167
}	-10.2248
▁Chrome	-10.2249
▁NUEVO	-10.2249
▁imágenes	-10.2249
▁orgullo	-10.2249
▁septiembre	-10.2249
▁bastante	-10.2249
▁fiscal	-10.2249
▁terror	-10.225
▁Survival	-10.2345
▁twitter	-10.2345
ColorPSOE	-10.2345
▁presidente	-10.2345
Oficial	-10.2345
▁Watch	-10.2345
▁julio	-10.2346
▁Blog	-10.2346
▁habrá	-10.2346
▁FAV	-10.2348
Town	-10.2377
martinezmaillo	-10.2442
▁Paths	-10.2442
▁Eleven	-10.2443
▁humano	-10.2443
▁difícil	-10.254
▁economía	-10.254
Howard	-10.254
VotaPSOE	-10.254
▁comienza	-10.254
▁demasiado	-10.254
▁plazo	-10.254
▁muestra	-10.254
▁memoria	-10.254
▁risa	-10.2547
▁multi	-10.2549
‘	-10.2639
`	-10.2639
▁cumpleaños	-10.2639
😍	-10.2639
▁tranqui	-10.2639
▁llegue	-10.264
▁tablet	-10.2642
▁HTC	-10.274
▁experiencia	-10.284
▁energía	-10.284
▁diferente	-10.284
▁Consejo	-10.284
▁emocion	-10.2851
|	-10.2895
▁internacional	-10.2942
▁hermano	-10.2942
Antonio	-10.2942
▁demostra	-10.2946
AAAA	-10.2953
ccifuentes	-10.3045
▁;-)	-10.3045
▁Amazon	-10.3045
▁desarrolla	-10.3045
▁cuerpo	-10.3045
▁ningú	-10.3057
Semana	-10.3069
▁Evolved	-10.3149
mariagv	-10.3149
▁edición	-10.3149
Alguien	-10.315
▁chatea	-10.3151
empleo	-10.3214
rasesparaligarde	-10.3254
▁Destacado	-10.3254
▁Plutón	-10.3254
▁ejemplo	-10.3254
▁inteligente	-10.3254
▁tampoco	-10.3254
▁través	-10.3254
▁efecto	-10.3254
▁candidato	-10.3254
Albiol	-10.3254
▁despues	-10.3255
▁puerta	-10.3255
▁enseña	-10.3256
▁causa	-10.3265
▁publi	-10.3277
▁actividad	-10.3361
▁Conferencia	-10.3361
▁Partido	-10.3361
▁proceso	-10.3362
▁culpa	-10.3365
▁sonrisa	-10.3407
prácticas	-10.3412
Gazette	-10.3468
▁Nuestra	-10.3468
▁universidad	-10.3468
▁Llega	-10.3469
▁estrena	-10.3469
▁Direction	-10.3577
▁preocupa	-10.3577
Island	-10.3577
▁segunda	-10.3577
▁muerte	-10.3578
▁común	-10.3578
▁carrera	-10.3578
▁TODO	-10.3578
▁recuerdo	-10.3687
▁situación	-10.3687
JOlv	-10.3687
▁centro	-10.3688
☺	-10.3798
CwscwX	-10.3798
Paradise	-10.3799
▁abrir	-10.3801
Cifuentes	-10.391
RamonEspinar	-10.391
▁WhatsApp	-10.391
▁respuesta	-10.391
▁conseguir	-10.391
lógico	-10.391
▁evento	-10.3911
▁distint	-10.3914
Investiga	-10.4024
Quién	-10.4024
▁artículo	-10.4024
▁laboral	-10.4024
▁conseguido	-10.4139
▁económico	-10.4139
▁maquillar	-10.4139
▁sábado	-10.4139
▁evitar	-10.4139
▁rueda	-10.4139
▁Tronos	-10.4139
▁abrazo	-10.4139
▁relacion	-10.4238
HumorInformático	-10.4255
▁comenzar	-10.4255
▁crecimiento	-10.4255
▁digital	-10.4255
ísimo	-10.4262
▁alternativa	-10.4373
▁esfuerzo	-10.4373
♡	-10.4373
ODIO	-10.4373
▁negro	-10.4374
Errejón	-10.4492
▁VIDEO	-10.4492
▁representa	-10.4492
lógica	-10.4492
▁Popular	-10.4492
▁hermoso	-10.4492
Econom	-10.4493
▁duele	-10.4495
aventura	-10.4499
▁hermosa	-10.4511
▁principio	-10.4612
▁impuestos	-10.4612
▁arregla	-10.4612
▁aprendi	-10.4616
Directo	-10.4627
laboraConPodemos	-10.4734
▁compromiso	-10.4734
▁dólares	-10.4734
▁excelente	-10.4734
▁recuerda	-10.4734
Nosotros	-10.4734
▁fabrica	-10.4734
▁encuentra	-10.4734
▁declara	-10.4737
▁OnePlus	-10.4858
▁enfermedad	-10.4858
▁europeo	-10.4858
▁víctima	-10.4858
▁entiende	-10.4858
Campus	-10.4859
Ciudadanos	-10.4983
▁construir	-10.4983
▁línea	-10.4983
▁Lucky	-10.4983
científico	-10.5109
▁cerebral	-10.5109
▁reunión	-10.5109
VÍDEO	-10.5109
▁anuncio	-10.5109
▁colegio	-10.5109
▁violencia	-10.5109
▁recomenda	-10.5109
ParaLaMayoria	-10.5238
MayoralRafa	-10.5238
feminoacid	-10.5238
▁Blocks	-10.5238
▁SORTEO	-10.5238
▁dispositivo	-10.5238
▁amenaza	-10.5238
▁integra	-10.5241
▁Andalucía	-10.5367
HAPPY	-10.5367
▁necesito	-10.5367
Pregunta	-10.5368
Necesita	-10.5368
Moreno	-10.5368
Nexus	-10.5372
CIÓN	-10.5499
▁responsabilidad	-10.5499
😱	-10.5499
▁Púnica	-10.5499
▁imagina	-10.5499
▁MÁS	-10.5499
emprende	-10.55
▁conecta	-10.5503
Fernan	-10.5534
AbcdjN	-10.5632
▁perfecta	-10.5632
DesayunosTVE	-10.5632
gerigrinerd	-10.5632
▁beneficios	-10.5632
▁reproduc	-10.5632
▁imposible	-10.5632
▁popular	-10.5632
Medicina	-10.5633
▁enamora	-10.5635
▁Ayuntamiento	-10.5767
▁WHEELS	-10.5767
▁ayuntamiento	-10.5767
▁sorprende	-10.5767
▁cáncer	-10.5768
▁depende	-10.5774
❤	-10.5904
~	-10.5904
▁habitación	-10.5904
▁necesario	-10.5904
▁ilusión	-10.5904
▁reserva	-10.5905
▁solicita	-10.5905
malware	-10.5905
▁Xiaomi	-10.6043
▁gratuita	-10.6043
▁responsable	-10.6043
ministra	-10.6043
▁elegido	-10.6043
ElevenPaths	-10.6184
GanarSeguidores	-10.6184
▁científica	-10.6184
😊	-10.6327
✌	-10.6619
👌	-10.6768
[	-11.2513
—	-12.3628
“	-12.4969
«	-12.833
́	-12.833
