<unk>	0
<s>	0
</s>	0
<sep>	0
<cls>	0
t	-3.3808
.	-3.56903
s	-3.60966
▁	-3.65941
co	-3.8471
://	-4.00426
▁http	-4.03363
/	-4.11472
▁de	-4.1805
▁@	-4.46689
D	-4.49497
r	-4.49948
a	-4.51311
▁a	-4.6545
o	-4.67994
n	-4.69473
▁:	-4.76508
,	-4.83157
▁la	-4.89963
▁#	-4.90978
▁en	-4.94067
▁que	-4.94288
p	-4.9794
l	-4.99486
e	-5.01264
P	-5.04538
i	-5.05071
c	-5.05219
▁el	-5.06875
y	-5.15283
d	-5.15664
u	-5.19916
▁y	-5.20836
A	-5.24765
g	-5.28293
b	-5.32925
m	-5.34304
h	-5.37287
O	-5.37385
E	-5.37956
z	-5.38515
S	-5.38553
G	-5.38813
C	-5.41292
M	-5.41663
v	-5.44542
B	-5.44942
T	-5.45542
f	-5.46027
F	-5.48499
x	-5.48755
k	-5.49609
N	-5.51476
L	-5.52732
U	-5.54822
:	-5.55488
I	-5.56302
V	-5.56374
j	-5.56543
▁con	-5.56674
w	-5.57967
R	-5.58037
H	-5.58874
J	-5.5956
Y	-5.60488
W	-5.62201
▁es	-5.64305
X	-5.654
0	-5.67187
4	-5.67985
3	-5.68076
K	-5.68529
Z	-5.69452
▁un	-5.69543
8	-5.70436
9	-5.70748
6	-5.71868
▁no	-5.7242
2	-5.72787
7	-5.73942
5	-5.74291
Q	-5.7634
1	-5.7636
q	-5.77531
_	-5.82474
▁para	-5.85014
!	-5.89874
▁se	-5.91255
▁los	-5.92267
?	-5.95086
es	-5.9703
▁me	-6.02759
▁del	-6.06536
do	-6.07078
...	-6.09095
la	-6.09251
er	-6.10746
ra	-6.11635
▁A	-6.13044
▁por	-6.13221
ar	-6.1366
▁te	-6.16888
lo	-6.18097
"	-6.20625
te	-6.21452
▁"	-6.21617
le	-6.22613
▁lo	-6.24897
▁re	-6.3174
▁-	-6.33509
▁las	-6.36362
de	-6.37585
▁juego	-6.39033
▁una	-6.413
▁al	-6.42476
en	-6.48203
▁mi	-6.48579
ri	-6.49781
▁¿	-6.54059
▁si	-6.58576
)	-6.59029
▁El	-6.59228
ro	-6.62607
ca	-6.64668
an	-6.66777
vi	-6.67016
▁ha	-6.67234
da	-6.67844
ma	-6.72129
me	-6.72505
é	-6.73449
▁(	-6.7371
al	-6.74391
no	-6.76063
li	-6.76525
na	-6.77491
el	-6.78693
▁tu	-6.79597
▁su	-6.8123
mi	-6.81813
go	-6.83165
re	-6.84573
▁La	-6.87165
▁más	-6.88022
pa	-6.8807
ci	-6.89148
í	-6.89616
á	-6.89701
▁C	-6.89707
ndo	-6.8971
mos	-6.90711
▁o	-6.90957
▁in	-6.95079
di	-6.95389
as	-6.96805
!!	-6.99584
ba	-7.00167
UAM	-7.0062
ga	-7.00626
ción	-7.02131
ce	-7.02948
mo	-7.03581
ó	-7.03692
▁No	-7.04537
se	-7.06038
os	-7.0751
ja	-7.09852
-	-7.10681
▁¡	-7.1087
▁S	-7.1135
ado	-7.13125
in	-7.13582
▁le	-7.1376
▁como	-7.14812
is	-7.1725
▁P	-7.18894
▁ya	-7.19403
▁pero	-7.23898
▁ca	-7.24357
pe	-7.24569
ve	-7.25187
fi	-7.26085
▁Me	-7.26934
res	-7.2757
ni	-7.27712
or	-7.28759
ía	-7.28904
ir	-7.29144
▁di	-7.3027
▁esta	-7.30912
▁va	-7.32503
cu	-7.34583
rá	-7.34792
ru	-7.35173
vo	-7.35718
lu	-7.36648
ita	-7.37209
ido	-7.3814
va	-7.38877
cha	-7.39184
▁c	-7.39955
je	-7.39964
▁pro	-7.40916
ria	-7.41562
ón	-7.41684
on	-7.41858
▁O	-7.42615
idad	-7.42617
que	-7.43311
YouTube	-7.43606
ia	-7.44662
▁G	-7.45515
▁ma	-7.45603
▁e	-7.45797
▁vía	-7.46182
du	-7.46978
ando	-7.47367
▁ver	-7.47564
▁Es	-7.47566
La	-7.48394
jo	-7.48476
bo	-7.48843
nd	-7.48988
▁este	-7.4944
▁T	-7.4962
▁En	-7.49812
un	-7.50198
▁com	-7.50507
▁pa	-7.50849
mp	-7.50997
ne	-7.52623
▁vi	-7.53529
za	-7.53636
be	-7.53795
bi	-7.5389
▁F	-7.54466
nta	-7.54679
▁2	-7.55681
▁E	-7.56162
▁V	-7.56602
▁mejor	-7.56662
si	-7.56781
ver	-7.57512
;	-7.57517
sta	-7.5808
les	-7.59228
ito	-7.59249
ero	-7.5994
▁Se	-7.61058
ría	-7.62259
▁Ma	-7.6303
pi	-7.63146
▁nuevo	-7.63529
gu	-7.63606
tro	-7.64559
▁pe	-7.6492
▁está	-7.64959
▁todo	-7.65762
▁yo	-7.65882
▁Si	-7.65957
▁son	-7.66203
▁cu	-7.66238
mente	-7.66263
▁ser	-7.66341
▁B	-7.66552
ña	-7.6656
ina	-7.67828
▁De	-7.67939
▁PC	-7.68137
'	-7.68983
qui	-7.69689
ño	-7.69694
il	-7.69725
▁Y	-7.69987
▁mo	-7.70257
▁po	-7.70484
▁hay	-7.70999
▁Un	-7.71202
nos	-7.71327
▁Re	-7.7167
tos	-7.71859
ciones	-7.72065
po	-7.72115
▁3	-7.72599
▁|	-7.72813
iendo	-7.72899
▁pre	-7.73
gi	-7.73329
zo	-7.73526
cia	-7.76088
▁Los	-7.76319
OS	-7.76486
ol	-7.77483
▁ex	-7.7798
El	-7.77981
ha	-7.7826
▁hace	-7.78489
▁Mi	-7.78909
00	-7.79653
cho	-7.79677
ER	-7.79928
▁hacer	-7.80154
ú	-7.80546
rte	-7.8074
ll	-7.80766
▁qué	-7.81358
▁1	-7.81707
ge	-7.81887
ada	-7.82191
ación	-7.8232
▁sin	-7.82494
ic	-7.82879
io	-7.8294
▁sobre	-7.83334
▁&	-7.83336
ul	-7.83685
der	-7.84624
▁Ca	-7.84802
▁ni	-7.84978
rio	-7.85002
▁So	-7.85285
gra	-7.85815
▁Que	-7.86358
▁per	-7.86566
encia	-7.86738
▁pi	-7.86805
▁día	-7.87164
▁cuando	-7.87594
cto	-7.87736
▁he	-7.88106
▁I	-7.88213
▁todos	-7.88357
ES	-7.88869
era	-7.88943
▁M	-7.89063
tal	-7.8946
cer	-7.89618
ho	-7.89636
ez	-7.89682
▁bien	-7.89892
▁gracias	-7.90295
amos	-7.90391
▁Te	-7.91443
▁ba	-7.91495
tas	-7.92471
▁.@	-7.92819
ck	-7.93381
ie	-7.93447
lle	-7.94053
ch	-7.94228
▁ju	-7.94237
11	-7.94626
▁tiene	-7.9472
per	-7.94898
No	-7.9525
EN	-7.95411
▁ve	-7.9568
che	-7.95727
▁puede	-7.95918
dos	-7.96368
▁Con	-7.96563
▁ti	-7.9726
Ma	-7.9731
us	-7.97828
nti	-7.97988
ran	-7.98372
▁muy	-7.98528
▁hoy	-7.99221
ente	-7.99224
ur	-7.99328
nte	-7.99549
ros	-7.99656
▁mal	-8.00341
ste	-8.00511
▁gusta	-8.0054
ida	-8.00636
los	-8.01071
▁PP	-8.01094
fe	-8.01735
▁llega	-8.02156
!!!	-8.02749
sto	-8.0292
▁mas	-8.03029
am	-8.03044
bu	-8.0361
ing	-8.04028
las	-8.0447
▁da	-8.04663
▁Lo	-8.04872
ue	-8.05817
▁España	-8.06863
▁Android	-8.06898
ica	-8.07054
sión	-8.07257
▁mucho	-8.07273
▁eso	-8.07393
▁mu	-8.07471
▁tengo	-8.07573
▁ahora	-8.08239
min	-8.09251
▁10	-8.09841
▁Pa	-8.10025
Madrid	-8.10172
AR	-8.10183
▁d	-8.10554
▁so	-8.10615
▁sus	-8.10653
▁porque	-8.10821
▁nos	-8.10915
▁Ha	-8.11
http	-8.11139
▁Ya	-8.11582
▁sal	-8.11585
▁Google	-8.11663
mb	-8.11716
ad	-8.11733
dia	-8.12126
ke	-8.12515
▁DE	-8.13269
lla	-8.14327
ki	-8.1462
ras	-8.14821
he	-8.15327
▁In	-8.15728
fa	-8.1598
hi	-8.16677
▁video	-8.17027
RE	-8.17171
/0	-8.17289
AS	-8.1733
▁vida	-8.18112
▁gente	-8.18312
man	-8.18464
rma	-8.18842
▁xD	-8.18937
ron	-8.19064
▁años	-8.1938
▁pasa	-8.19583
ana	-8.19898
ante	-8.19937
AN	-8.20025
▁ro	-8.20268
TE	-8.20311
RA	-8.20401
/8	-8.20446
De	-8.20578
tor	-8.20768
OR	-8.21029
*	-8.21037
▁voy	-8.21074
@	-8.21141
▁Esta	-8.21385
▁4	-8.22081
En	-8.22125
sanchezcastejon	-8.22193
ig	-8.22592
ven	-8.22628
▁par	-8.22895
gen	-8.23075
por	-8.23235
▁contra	-8.23641
▁Gracias	-8.23655
cas	-8.24122
▁Di	-8.24762
Ju	-8.25047
▁hi	-8.2525
men	-8.25306
▁q	-8.25345
pu	-8.25467
▁nada	-8.25491
ber	-8.25766
des	-8.25831
▁bo	-8.2585
▁pc	-8.26251
das	-8.26591
cri	-8.26691
eta	-8.26769
tura	-8.26865
▁solo	-8.26926
▁Las	-8.26969
ed	-8.27001
Es	-8.27214
▁Hoy	-8.27666
dio	-8.27713
▁Co	-8.27744
▁5	-8.27916
▁mañana	-8.28042
▁bueno	-8.28185
▁f	-8.28343
▁pu	-8.28572
▁20	-8.28762
▁desde	-8.28881
▁quiere	-8.29006
▁Al	-8.29019
TA	-8.29675
▁jajaja	-8.29693
pp	-8.29756
▁dia	-8.2981
▁—	-8.29882
gue	-8.29977
án	-8.30216
Qué	-8.30545
/4	-8.30598
ncia	-8.30612
▁entre	-8.30929
▁favor	-8.31109
/3	-8.31226
tiva	-8.31261
tica	-8.31531
▁Este	-8.31593
tre	-8.3168
▁'	-8.32104
(	-8.32401
lar	-8.32555
tivo	-8.32922
lt	-8.32975
fo	-8.33207
ble	-8.33261
/2	-8.33416
um	-8.33477
illa	-8.33524
car	-8.33556
▁fue	-8.33708
gui	-8.33847
▁vez	-8.33952
nu	-8.34014
▁li	-8.34346
▁nuestro	-8.34692
mar	-8.3475
ec	-8.34862
nto	-8.34941
▁Yo	-8.35014
Ca	-8.35208
▁días	-8.35395
/6	-8.35485
Me	-8.35488
/7	-8.35763
▁Minecraft	-8.35979
▁también	-8.36166
▁to	-8.36219
Mi	-8.36272
/5	-8.36425
esta	-8.36488
▁vídeo	-8.36911
ces	-8.37002
▁Le	-8.38052
https	-8.38155
Se	-8.38322
Por	-8.3845
▁estoy	-8.38517
dores	-8.38554
▁dis	-8.38616
xi	-8.38753
pre	-8.38881
rios	-8.38926
.-	-8.38979
▁Mu	-8.39461
▁ho	-8.39516
ista	-8.3956
▁hasta	-8.39629
TO	-8.39753
▁Por	-8.39878
30	-8.40024
bra	-8.40235
par	-8.40261
▁semana	-8.40423
LO	-8.40678
yo	-8.40761
remos	-8.40945
▁tra	-8.40979
AL	-8.41464
/9	-8.41655
Pa	-8.41978
▁noche	-8.42051
14	-8.42203
▁mis	-8.42548
]	-8.42605
Re	-8.42624
UE	-8.4279
▁fi	-8.42964
▁esto	-8.43495
uro	-8.43581
▁foto	-8.43782
▁fin	-8.4399
▁Más	-8.44231
▁Apple	-8.44359
ados	-8.44401
rd	-8.44546
dor	-8.44587
cion	-8.44668
▁mar	-8.44928
pon	-8.4496
▁quiero	-8.45499
¿	-8.45937
▁han	-8.46368
▁tan	-8.46389
So	-8.46626
▁ga	-8.46669
nsa	-8.46795
cio	-8.46886
ima	-8.47079
▁jaja	-8.47142
Lo	-8.47203
rre	-8.47355
cal	-8.4751
▁menos	-8.47554
▁aquí	-8.47591
ien	-8.47826
dad	-8.47912
bre	-8.47934
ré	-8.48384
▁nueva	-8.48474
PSOE	-8.48672
▁fe	-8.48702
RO	-8.48825
▁Hola	-8.48846
▁[	-8.4897
▁siempre	-8.49148
▁cambio	-8.49211
ya	-8.49391
▁fa	-8.49768
▁política	-8.49827
ye	-8.50314
IN	-8.5056
mas	-8.50616
▁ra	-8.50626
▁mundo	-8.50672
▁directo	-8.50692
▁L	-8.51088
%	-8.51198
▁RT	-8.51247
▁algo	-8.51301
Te	-8.51428
for	-8.51482
▁imp	-8.5154
/1	-8.51898
ay	-8.51958
Co	-8.52409
▁ta	-8.52685
ual	-8.52881
▁can	-8.53001
ario	-8.53265
▁ir	-8.53372
gt	-8.53798
Al	-8.5428
gar	-8.54337
▁tiempo	-8.54353
▁gana	-8.54452
▁Madrid	-8.54519
mor	-8.54549
marianorajoy	-8.54889
ju	-8.55033
ON	-8.55041
▁así	-8.55042
lan	-8.55172
lic	-8.5537
end	-8.55524
▁He	-8.55548
rme	-8.5556
”	-8.55608
oto	-8.5593
▁“	-8.56018
19	-8.56106
▁Juego	-8.56922
llo	-8.57025
▁primer	-8.57121
▁ven	-8.5736
▁dos	-8.57473
.#	-8.57611
Ch	-8.57621
▁programa	-8.57796
ismo	-8.58749
gua	-8.59139
wi	-8.59325
▁espera	-8.59338
▁24	-8.59835
▁jugar	-8.59892
;3	-8.60043
▁Pe	-8.60186
ee	-8.60416
IS	-8.60424
mu	-8.60512
Pablo	-8.60803
▁EL	-8.61151
im	-8.61446
erto	-8.61642
CI	-8.61744
▁dice	-8.62269
▁Po	-8.62564
▁na	-8.62609
den	-8.62628
RI	-8.62765
rro	-8.62777
▁...	-8.62785
fica	-8.63098
▁otro	-8.63194
emos	-8.63307
ega	-8.63325
▁sabe	-8.63361
▁hu	-8.63491
Feliz	-8.63492
▁2015	-8.63815
su	-8.63979
TI	-8.63982
▁nuestra	-8.64072
ka	-8.64129
25	-8.64137
ici	-8.64491
▁cal	-8.64589
▁mismo	-8.64672
▁ne	-8.64687
▁Ba	-8.64821
muchas	-8.65113
▁To	-8.65298
▁Vi	-8.65825
▁soy	-8.65893
▁car	-8.66275
▁Na	-8.66468
cen	-8.66835
rea	-8.67011
ata	-8.67022
able	-8.67288
ng	-8.67898
gre	-8.68086
microsiervos	-8.68281
.—	-8.68375
rra	-8.68389
▁U	-8.69278
LE	-8.69675
▁cosas	-8.69859
JA	-8.69907
LA	-8.69999
▁era	-8.70003
Ro	-8.70359
▁..	-8.70617
▁Mo	-8.70718
▁social	-8.70975
ambio	-8.71124
▁uno	-8.71204
▁:(	-8.71442
▁chi	-8.715
▁Su	-8.71515
▁cuenta	-8.71614
ntes	-8.717
tico	-8.71758
▁lleva	-8.7183
▁sub	-8.71973
▁igual	-8.72037
▁poco	-8.72099
Ru	-8.72269
▁mira	-8.72762
itu	-8.72979
mbre	-8.73007
▁Li	-8.7322
▁buena	-8.73499
ales	-8.73664
chi	-8.73771
▁tener	-8.73792
Que	-8.73857
▁año	-8.73957
2015	-8.74069
Buen	-8.74096
..#	-8.74124
▁}:	-8.74403
cul	-8.7449
▁sí	-8.74625
▁Una	-8.74709
Lu	-8.74722
fu	-8.74728
CO	-8.74968
igo	-8.74982
▁PSOE	-8.75021
Si	-8.75177
▁país	-8.75286
mento	-8.7535
ine	-8.75354
+	-8.75396
▁fu	-8.75493
▁cre	-8.75532
gan	-8.75632
em	-8.75808
ex	-8.75892
ato	-8.7593
▁forma	-8.75952
ento	-8.76207
▁pri	-8.76258
&	-8.76503
▁NO	-8.76566
▁partido	-8.76605
ones	-8.76727
ena	-8.76766
IC	-8.76843
▁canal	-8.77194
rado	-8.77327
▁Va	-8.7752
anza	-8.77664
▁otra	-8.77873
10	-8.77957
MO	-8.78131
▁crea	-8.7817
curso	-8.78196
menta	-8.78281
Ha	-8.785
Con	-8.78549
tin	-8.78923
MA	-8.78927
▁Ne	-8.78946
Iglesias	-8.79307
▁personas	-8.80003
fer	-8.80314
▁pen	-8.80325
iza	-8.80503
▁casa	-8.80556
▁estar	-8.80829
▁Cu	-8.8104
▁LA	-8.81339
▁perfecto	-8.82323
▁habla	-8.82378
ura	-8.82385
▁salud	-8.82433
nio	-8.8248
▁Ja	-8.82557
ii	-8.82598
hu	-8.82672
ster	-8.82705
iste	-8.82717
20	-8.82878
▁espero	-8.83052
▁problema	-8.8327
oo	-8.83386
▁queda	-8.8372
NA	-8.83728
pro	-8.83747
PE	-8.83914
son	-8.84032
iz	-8.84201
ry	-8.84401
▁puedes	-8.84413
▁Ra	-8.8454
nes	-8.84586
CA	-8.84751
uda	-8.85005
rri	-8.85057
▁donde	-8.85192
▁eres	-8.8527
▁presenta	-8.85434
▁Des	-8.85435
▁verdad	-8.85523
▁personalizado	-8.85677
▁man	-8.85768
▁compra	-8.86203
MI	-8.86205
Un	-8.86215
entes	-8.86297
Cu	-8.86475
anda	-8.86821
can	-8.871
▁pie	-8.87478
▁Wi	-8.8751
▁Así	-8.87691
cción	-8.87729
ador	-8.87813
erra	-8.87949
illo	-8.88019
Sa	-8.88319
▁ES	-8.88561
▁llama	-8.8869
▁antes	-8.88813
miento	-8.889
rece	-8.89163
ió	-8.89217
To	-8.89273
▁toda	-8.89453
▁seguir	-8.89572
▁Mar	-8.89616
▁dar	-8.89678
cional	-8.8983
▁g	-8.89979
ren	-8.90102
▁móvil	-8.90161
cre	-8.90166
😂	-8.90416
▁debe	-8.90416
▁vota	-8.90642
▁amigo	-8.90689
▁Cómo	-8.9078
▁gran	-8.90991
▁Rajoy	-8.91241
ino	-8.91469
II	-8.91671
ás	-8.91816
▁Ro	-8.92
rse	-8.92071
bro	-8.92178
ierrejon	-8.9222
PS	-8.92277
wa	-8.92351
▁nunca	-8.92481
¡	-8.92543
▁hecho	-8.92602
▁Com	-8.92818
▁algun	-8.92873
▁están	-8.92976
▁gobierno	-8.93003
▁EN	-8.93083
▁Ahora	-8.93268
amp	-8.93429
esti	-8.93516
▁Do	-8.93721
one	-8.93741
lado	-8.93974
▁Ho	-8.94048
iente	-8.94429
13	-8.94665
ff	-8.94768
Ho	-8.94785
▁trabaja	-8.94856
▁sol	-8.95043
▁amor	-8.95254
▁cómo	-8.95391
▁persona	-8.95924
ForoC	-8.962
▁fans	-8.96251
imos	-8.9639
Á	-8.9647
Ciencia	-8.96498
icos	-8.96584
▁Seguridad	-8.96742
ona	-8.96851
▁dormir	-8.97015
ible	-8.97055
Yo	-8.9725
adas	-8.97378
Game	-8.97599
ide	-8.97687
▁Pre	-8.98066
".	-8.98154
nica	-8.98248
▁Pro	-8.98431
▁parece	-8.98466
15	-8.98468
▁primera	-8.98598
▁hora	-8.98664
mon	-8.9889
▁millones	-8.98943
▁Mañana	-8.98943
▁guste	-8.98948
▁6	-8.99185
▁asi	-8.99207
fra	-8.99391
▁puedo	-8.99505
Mo	-8.99506
Li	-8.99753
▁usa	-9.00027
24	-9.0016
▁decir	-9.00165
enda	-9.0022
▁Jo	-9.00631
▁quien	-9.00926
anto	-9.01163
▁go	-9.01198
16	-9.01499
▁Para	-9.0153
▁falta	-9.01629
▁buen	-9.01675
▁vamos	-9.01797
▁Bo	-9.01805
▁plan	-9.01869
▁cada	-9.0204
SI	-9.02098
▁sea	-9.02115
▁Cuando	-9.02128
▁será	-9.02231
▁tanto	-9.02273
istas	-9.02715
▁inter	-9.02716
▁pregunta	-9.02915
▁QUE	-9.02931
ban	-9.03229
12	-9.03244
TV	-9.03495
▁momento	-9.03559
▁Pero	-9.03832
eja	-9.04041
US	-9.04213
▁Gobierno	-9.04373
cula	-9.04511
itos	-9.04517
17	-9.04603
▁trabajo	-9.04667
▁mejores	-9.04705
play	-9.0481
▁Todo	-9.04889
nia	-9.05146
▁Ni	-9.05185
Mar	-9.05273
▁real	-9.05282
mm	-9.05834
▁ese	-9.05867
▁podría	-9.06201
▁grande	-9.06287
cina	-9.06317
▁creo	-9.06336
VI	-9.0634
LI	-9.06565
▁Pu	-9.06597
▁sigue	-9.06785
▁busca	-9.07078
▁sa	-9.07115
rica	-9.07148
jos	-9.072
▁todas	-9.0733
chemaalonso	-9.07354
▁ayuda	-9.07363
jajaja	-9.07527
Fu	-9.07573
▁:)	-9.0763
éis	-9.08002
▁empleo	-9.08082
▁ob	-9.08265
rán	-9.0841
▁final	-9.08428
▁tienes	-9.08448
by	-9.08636
HO	-9.08742
▁Lu	-9.0884
tion	-9.09435
sion	-9.09558
puesto	-9.09573
Po	-9.0963
▁Buenos	-9.0974
▁futuro	-9.09805
▁vos	-9.09978
▁Ex	-9.1001
▁pod	-9.10016
vuel	-9.1008
▁Da	-9.10223
▁emp	-9.10435
▁entra	-9.10665
▁encanta	-9.10746
▁les	-9.10928
▁sido	-9.11258
oooo	-9.11276
icio	-9.11345
▁os	-9.11592
bilidad	-9.11731
▁8	-9.11893
game	-9.11895
Mu	-9.11965
UniDeVerano	-9.11999
▁Bi	-9.12033
▁The	-9.12179
99	-9.12388
▁unos	-9.12487
▁Sa	-9.12628
▁Podemos	-9.12731
▁jajajaja	-9.12897
▁feliz	-9.12955
▁Fe	-9.12958
▁horas	-9.12963
▁acaba	-9.13025
▁Fi	-9.13373
ciencia	-9.13479
▁PS	-9.13507
lin	-9.13514
▁tú	-9.13599
▁One	-9.13688
siones	-9.13726
ere	-9.14019
▁auto	-9.14139
▁K	-9.14165
ñ	-9.14814
▁deja	-9.1486
▁tarde	-9.14903
▁bi	-9.15003
▁poner	-9.15305
▁tienen	-9.15318
idades	-9.15521
▁funciona	-9.15878
▁Play	-9.1589
juego	-9.16002
▁cie	-9.16014
Hu	-9.16086
imiento	-9.16109
▁historia	-9.16207
más	-9.16354
nce	-9.16629
▁Be	-9.16859
▁sólo	-9.16871
▁15	-9.16978
toria	-9.17168
▁cara	-9.17332
▁tri	-9.17476
▁toma	-9.17572
▁estamos	-9.17586
▁12	-9.17597
Los	-9.17879
▁Hi	-9.18081
▁Fa	-9.18109
»	-9.1821
▁extra	-9.18299
01	-9.18405
▁info	-9.18645
Cómo	-9.18748
▁tenemos	-9.18891
ack	-9.18929
bel	-9.19112
▁Ta	-9.19123
Í	-9.19227
ger	-9.19385
▁Ga	-9.19699
▁mí	-9.20121
bar	-9.20153
▁Windows	-9.20254
bla	-9.20555
777	-9.20633
VO	-9.20813
▁desp	-9.20884
▁hombre	-9.20984
▁Tra	-9.21229
puta	-9.21544
▁Grecia	-9.21762
ín	-9.21949
▁Esto	-9.22013
▁necesita	-9.22341
▁«	-9.22409
▁trans	-9.22482
▁sab	-9.22585
23	-9.22787
▁Ti	-9.22815
ector	-9.23038
▁genera	-9.23409
▁tras	-9.2344
60	-9.23474
▁corre	-9.23604
suscríbete	-9.23757
▁Samsung	-9.23757
▁viene	-9.24159
Apple	-9.24842
▁realidad	-9.24974
gún	-9.25015
▁super	-9.25373
▁participa	-9.25556
▁MA	-9.25596
Car	-9.25616
▁euros	-9.25926
The	-9.25932
▁agua	-9.26083
♥	-9.26284
▁Esper	-9.26345
▁visto	-9.26499
▁san	-9.26536
Tuit	-9.26545
▁poder	-9.26637
uela	-9.26704
▁bu	-9.26936
arte	-9.26983
▁nadie	-9.27044
▁vol	-9.27373
▁alguien	-9.27388
ío	-9.27721
▁volver	-9.27826
▁+	-9.27918
▁saber	-9.28309
▁parte	-9.28445
▁MI	-9.28496
▁13	-9.2875
▁tal	-9.28841
▁debería	-9.28959
pablocasado	-9.2963
▁escucha	-9.29632
WillyrexYT	-9.30009
▁después	-9.30009
cido	-9.30091
▁veces	-9.30118
▁7	-9.30144
▁idea	-9.30162
ejo	-9.30277
aaa	-9.30659
osa	-9.31661
▁pues	-9.3183
▁minutos	-9.31925
▁reforma	-9.31927
▁of	-9.31985
TrabajarHacerCre	-9.32313
▁bonito	-9.32315
▁UN	-9.32389
▁cap	-9.32526
vegetta	-9.32701
▁familia	-9.32702
▁Europa	-9.32702
▁hablar	-9.32827
▁Tu	-9.3299
▁proyecto	-9.33094
▁gustado	-9.33194
▁pone	-9.33426
eto	-9.33715
▁bar	-9.33905
▁saca	-9.34144
unque	-9.3428
▁español	-9.34393
fre	-9.34564
▁seguro	-9.34923
hemos	-9.35212
▁Bueno	-9.35232
aaaa	-9.35459
▁Como	-9.35556
▁Car	-9.35634
chu	-9.35721
▁Nuevo	-9.3587
▁grab	-9.35888
▁último	-9.36273
▁fal	-9.36281
▁lanza	-9.36383
▁tenga	-9.36422
▁Pi	-9.36821
▁San	-9.36825
▁conoce	-9.37104
▁pasado	-9.37105
▁Hay	-9.37644
▁ps	-9.37764
entra	-9.37827
eeee	-9.38617
ota	-9.38654
▁Jajaja	-9.38717
▁estaba	-9.38768
▁sistema	-9.39144
27	-9.39352
izar	-9.39363
▁baja	-9.39481
▁domingo	-9.39559
▁ME	-9.39562
oficial	-9.39574
And	-9.39846
▁mayor	-9.39932
▁libro	-9.40032
jaja	-9.40115
▁punto	-9.40488
culo	-9.4055
▁somos	-9.40787
▁youtube	-9.41243
▁haga	-9.41464
▁paso	-9.41518
▁lindo	-9.41604
ben	-9.41963
dida	-9.42327
▁Gu	-9.4245
▁dejar	-9.42456
▁Pues	-9.4278
video	-9.43036
▁voto	-9.43523
▁fuera	-9.43527
▁sé	-9.43531
ieron	-9.43756
▁comer	-9.43932
€	-9.44261
▁equipo	-9.44261
▁cambiar	-9.44763
▁casi	-9.44853
▁Mod	-9.45066
▁medio	-9.45113
!!!!	-9.45188
▁ganar	-9.45234
▁mano	-9.45351
💬	-9.45582
▁lunes	-9.45587
▁estudia	-9.4559
▁explica	-9.45621
▁Aquí	-9.45762
Quieres	-9.46027
Util	-9.46127
▁mujeres	-9.46247
É	-9.46473
▁echa	-9.46692
▁empresa	-9.46927
▁sale	-9.46969
seguro	-9.47342
▁SE	-9.4744
▁paga	-9.47497
uam	-9.47621
▁coche	-9.48087
Juan	-9.48176
President	-9.4828
▁JUEGO	-9.48704
Gobernar	-9.48736
▁Twitter	-9.48736
ight	-9.48765
▁elecciones	-9.49196
▁podemos	-9.49224
▁SI	-9.49334
▁jajajajaja	-9.49643
▁chica	-9.49679
▁clase	-9.49681
▁lista	-9.50045
▁ciudad	-9.50118
▁nosotros	-9.50119
ática	-9.50621
▁termina	-9.51053
▁mientras	-9.51056
▁claro	-9.51058
▁trata	-9.51339
▁genial	-9.51521
▁hijos	-9.51569
▁toca	-9.5263
▁seguirme	-9.527
ambi	-9.52723
▁pierdas	-9.52943
▁Ri	-9.53325
▁web	-9.53425
0.000	-9.544
▁padre	-9.54455
▁estado	-9.54629
=	-9.5487
▁disponible	-9.5487
▁electoral	-9.54878
▁partir	-9.5488
▁cerebro	-9.55358
▁datos	-9.55609
▁corrupción	-9.55848
▁acuerdo	-9.55848
▁estará	-9.55946
nova	-9.55956
plica	-9.56045
▁tipo	-9.56128
▁CA	-9.56252
iPhone	-9.56341
ología	-9.56344
ñe	-9.56398
ooo	-9.56604
▁Día	-9.56621
;&	-9.5695
Com	-9.5723
JAJAJ	-9.57376
▁prepara	-9.57438
unda	-9.57485
king	-9.57499
▁posible	-9.57835
▁salir	-9.58168
▁Tengo	-9.58344
▁peor	-9.58624
▁siento	-9.58667
▁teléfono	-9.58841
▁pase	-9.58957
control	-9.5907
para	-9.59157
2016	-9.59326
▁haciendo	-9.59353
▁españoles	-9.60216
▁Wa	-9.60283
▁Vamos	-9.6044
▁ARK	-9.60454
▁Microsoft	-9.60887
▁actualiza	-9.60895
▁Mon	-9.61012
▁Gran	-9.61266
▁político	-9.61405
▁servicio	-9.61405
▁breve	-9.61411
JAJAJAJA	-9.61904
▁Buenas	-9.61933
Orgullo	-9.62449
▁Black	-9.62451
derecho	-9.6264
arse	-9.62881
▁Sí	-9.62905
ección	-9.62934
▁pantalla	-9.62976
▁dinero	-9.63511
Ñ	-9.64037
grafía	-9.64038
▁sueño	-9.64042
▁derechos	-9.64106
iano	-9.6419
▁Sal	-9.64212
▁cualquier	-9.64571
iiii	-9.64667
España	-9.6474
grado	-9.64787
Estoy	-9.6494
▁próximo	-9.65109
▁madre	-9.65142
▁verano	-9.65682
▁compa	-9.65684
▁mon	-9.66215
▁serie	-9.66762
▁haber	-9.66766
▁tuit	-9.66883
▁digo	-9.6699
▁ayer	-9.66998
Curso	-9.67314
▁For	-9.67733
▁tweet	-9.67841
jajja	-9.68297
▁Facebook	-9.68397
▁mierda	-9.68406
▁Quiero	-9.68956
destacad	-9.6899
▁dijo	-9.69068
▁mujer	-9.6925
▁CON	-9.69934
Javi	-9.69941
▁ordenador	-9.70082
▁gratis	-9.70083
▁caso	-9.70178
▁duran	-9.70184
▁cabeza	-9.70651
▁miedo	-9.70711
▁aún	-9.70715
Hasta	-9.70825
PPopular	-9.71222
▁Xbox	-9.71222
quí	-9.71493
▁cumple	-9.71748
▁Internet	-9.71797
▁disfrut	-9.71797
▁lucha	-9.71815
▁importante	-9.71978
▁precio	-9.71995
Manuel	-9.72137
▁vaya	-9.72301
▁seguridad	-9.72376
▁conmigo	-9.72388
▁suerte	-9.72413
▁tres	-9.72572
▁usted	-9.72964
▁PARA	-9.72967
▁Star	-9.73084
Tiene	-9.73314
▁meses	-9.73363
Podemos	-9.73366
▁mesa	-9.73437
▁película	-9.73541
!!!!!	-9.73751
▁(@	-9.74091
▁mayoría	-9.74228
▁iOS	-9.7425
▁cosa	-9.74311
–	-9.74721
▁luego	-9.74721
▁Jajajaja	-9.74924
▁manda	-9.74941
▁único	-9.75316
▁descarga	-9.75318
inclu	-9.75592
Social	-9.75709
▁importa	-9.75727
▁palabra	-9.75916
▁Voy	-9.75976
▁interesa	-9.76102
▁democracia	-9.76517
▁carga	-9.76754
▁cree	-9.76855
Jose	-9.7697
MINECRAFT	-9.77123
▁público	-9.77123
▁especial	-9.77123
▁Saludos	-9.77124
▁ahí	-9.77203
▁Episodio	-9.77733
▁segundo	-9.77736
ADO	-9.78344
▁él	-9.78488
Conoce	-9.78876
VotaPP	-9.78964
▁apoyo	-9.78966
▁compañe	-9.78974
hFa	-9.79426
▁compart	-9.79556
^	-9.79585
▁resulta	-9.79586
misión	-9.7959
#	-9.79732
▁versión	-9.79919
▁pueblo	-9.8021
▁entrevista	-9.80211
▁lugar	-9.80218
▁Sigue	-9.8044
tecnología	-9.80839
▁amiga	-9.80867
▁junto	-9.81044
elFuturodeEspaña	-9.81472
▁follow	-9.81472
▁griego	-9.81472
▁intenta	-9.81475
▁luz	-9.81614
▁LOS	-9.81761
▁grupo	-9.82109
Lunes	-9.82171
▁cambia	-9.82681
ización	-9.82724
▁Galaxy	-9.8275
▁pública	-9.8275
▁goberna	-9.8275
▁espacio	-9.82751
cuesta	-9.8277
Primer	-9.82783
▁empieza	-9.83395
▁cumpl	-9.83486
olución	-9.8371
▁campaña	-9.84044
▁viernes	-9.84045
▁quiera	-9.84058
▁GTA	-9.84396
▁encontrar	-9.84658
▁corazón	-9.84698
▁empezar	-9.84698
▁actua	-9.85408
▁smartphone	-9.86018
▁anuncia	-9.8602
Verano	-9.8603
internet	-9.86146
▁última	-9.86685
▁propuesta	-9.86685
▁mensaje	-9.86685
▁tendrá	-9.86692
uuu	-9.86936
▁Porque	-9.86953
▁publica	-9.87257
quito	-9.87267
Latch	-9.87311
▁celebra	-9.87356
▁vistazo	-9.87356
▁había	-9.87365
segur	-9.87533
ALevySoler	-9.88032
▁instala	-9.88057
▁venta	-9.8814
▁viendo	-9.88141
Congreso	-9.88714
▁cierto	-9.88724
▁cerca	-9.88775
▁record	-9.88786
Video	-9.88886
▁votada	-9.89069
▁aplicaciones	-9.89397
▁crisis	-9.89397
▁modelo	-9.89403
▁debate	-9.89475
▁podrá	-9.89485
▁música	-9.90086
▁jejej	-9.90087
$	-9.90781
Ó	-9.90781
▁DIRECTO	-9.90781
▁Descubre	-9.90781
▁jóvenes	-9.90781
▁libertad	-9.90781
Nunca	-9.90787
️	-9.9148
▁virtual	-9.9148
▁estudio	-9.91481
▁vacaciones	-9.91481
▁jugando	-9.91483
▁pueda	-9.91501
▁iba	-9.91682
Rafa	-9.9191
▁noticia	-9.92187
Irene	-9.92204
▁libre	-9.92322
Estamos	-9.92499
▁izquierda	-9.92894
Empleo	-9.92894
▁beta	-9.92994
Informático	-9.93608
▁cámara	-9.93608
▁gustó	-9.93608
▁galletas	-9.93608
▁acceso	-9.93608
▁anima	-9.9372
▁recuperación	-9.9441
▁existe	-9.94471
▁esté	-9.94982
▁Gameplay	-9.95053
▁tenía	-9.95085
▁socialistas	-9.95096
Tenemos	-9.95104
▁rato	-9.95133
▁manera	-9.95205
algún	-9.95303
madrid	-9.95782
▁ciudadanos	-9.95783
▁felicidad	-9.95783
▁aumenta	-9.95799
▁dentro	-9.95946
estudiantes	-9.96505
▁aplicación	-9.96519
Europe	-9.96526
???	-9.96553
▁vuelve	-9.96554
▁encontr	-9.96591
▁duda	-9.96812
qué	-9.97041
Dowrow	-9.97258
▁Comienza	-9.97258
Montero	-9.97269
▁vivir	-9.97319
Queremos	-9.97671
▁conferencia	-9.98005
Domingo	-9.98006
▁fuerza	-9.98008
emporada	-9.9801
Grecia	-9.98501
MTVHottest	-9.98756
▁información	-9.98756
▁friki	-9.98757
▁visita	-9.98782
▁Mejor	-9.98809
QUI	-9.98896
angel	-9.99297
JavierMaroto	-9.99514
▁prueba	-9.99514
▁Super	-9.99658
▁mata	-9.99995
▁Nuestro	-10.0028
▁color	-10.007
posición	-10.0108
Gracias	-10.0163
Juego	-10.0164
▁informático	-10.0182
▁número	-10.0182
▁leída	-10.0182
▁linda	-10.0186
ienta	-10.0231
Rajoy	-10.0243
▁fácil	-10.026
▁olvida	-10.026
scripción	-10.026
▁devuelvo	-10.0261
▁permite	-10.0261
▁vuelta	-10.0262
▁pensar	-10.0265
▁error	-10.0267
Info	-10.0335
▁quién	-10.0339
▁señor	-10.0369
Enhorabuena	-10.0418
Ú	-10.0418
▁^^	-10.0418
▁empiece	-10.0418
Rubiu	-10.0419
▁ocurr	-10.0422
▁recupera	-10.0489
▁Sánchez	-10.0498
▁profesor	-10.0498
Máster	-10.0501
Alex	-10.0576
▁oportunidad	-10.0579
▁organiza	-10.0579
▁usuario	-10.066
▁diferencia	-10.066
▁afecta	-10.066
▁imagen	-10.0661
ParaLaMayoría	-10.0742
bysTaXx	-10.0742
▁Nueva	-10.0742
▁online	-10.0742
▁riesgo	-10.0742
pnique	-10.0743
▁ofrece	-10.0746
direct	-10.0783
▁próxima	-10.0825
▁sociedad	-10.0825
▁utiliza	-10.0825
▁tambien	-10.0825
Debate	-10.0827
view	-10.084
▁ministro	-10.0908
▁levanta	-10.0908
▁jugado	-10.0919
ü	-10.0992
▁clave	-10.0993
▁nivel	-10.0996
Angel	-10.1002
CALI	-10.1009
dzilY	-10.1077
▁objetivo	-10.1077
▁abierto	-10.1077
▁Creo	-10.108
mdcospedal	-10.1163
▁bloque	-10.1163
▁cultura	-10.1163
▁café	-10.1163
▁Muchas	-10.1164
comentada	-10.1164
▁papel	-10.1167
▁llora	-10.1175
AHernandoVera	-10.1249
Internacional	-10.1249
’	-10.1249
▁Carmena	-10.1249
▁frente	-10.125
▁camino	-10.125
▁acabo	-10.1251
▁invita	-10.1252
▁quita	-10.1265
▁Universidad	-10.1336
▁Siempre	-10.1336
▁única	-10.1336
▁viaje	-10.1337
▁propio	-10.1337
Cuál	-10.1338
▁normal	-10.1342
aaaaaaa	-10.1354
▁aprender	-10.1423
▁instituciones	-10.1423
▁sentido	-10.1424
▁gusto	-10.1425
Miguel	-10.1427
Recuerda	-10.1512
ahorapodemos	-10.1512
▁éxito	-10.1512
gadget	-10.1512
▁Programa	-10.1512
▁oferta	-10.1512
▁recibi	-10.1517
¡¡	-10.16
Barcelona	-10.1601
Cospedal	-10.1601
Gabilondo	-10.1601
▁entonces	-10.1601
▁descubr	-10.1602
RdPPodemos	-10.1691
RutaDelCambio	-10.1691
▁dolor	-10.1693
?..—	-10.1695
▁ningun	-10.1782
▁batería	-10.1782
▁Garry	-10.1782
▁regala	-10.179
digoSIvotoPSOE	-10.1874
▁económica	-10.1874
▁primarias	-10.1874
▁pequeño	-10.1874
▁rápido	-10.1874
▁bonita	-10.1967
▁apoya	-10.1969
▁valor	-10.2015
Biblioteca	-10.206
▁sTaXx	-10.206
▁medidas	-10.2062
FelizMiercoles	-10.2154
▁código	-10.2154
▁peligro	-10.2154
▁ciudadanía	-10.2154
▁pedir	-10.2161
▁corta	-10.2165
Busca	-10.2168
}	-10.2249
▁Chrome	-10.225
▁NUEVO	-10.225
▁imágenes	-10.225
▁orgullo	-10.225
▁septiembre	-10.225
▁bastante	-10.225
▁fiscal	-10.225
▁terror	-10.2251
ColorPSOE	-10.2346
▁Survival	-10.2346
▁twitter	-10.2346
▁presidente	-10.2346
Oficial	-10.2346
▁Watch	-10.2346
▁julio	-10.2347
▁Blog	-10.2347
▁habrá	-10.2347
▁FAV	-10.235
Town	-10.2378
martinezmaillo	-10.2443
▁Paths	-10.2443
▁Eleven	-10.2444
▁humano	-10.2444
▁difícil	-10.2541
▁economía	-10.2541
Howard	-10.2541
VotaPSOE	-10.2541
▁comienza	-10.2541
▁demasiado	-10.2541
▁plazo	-10.2541
▁muestra	-10.2541
▁memoria	-10.2541
▁risa	-10.2548
▁multi	-10.255
`	-10.264
‘	-10.264
▁cumpleaños	-10.264
😍	-10.264
▁tranqui	-10.264
▁llegue	-10.2641
▁tablet	-10.2643
▁HTC	-10.274
▁experiencia	-10.2841
▁energía	-10.2841
▁diferente	-10.2841
▁Consejo	-10.2841
▁emocion	-10.2852
|	-10.2895
▁internacional	-10.2943
▁hermano	-10.2943
Antonio	-10.2943
▁demostra	-10.2947
AAAA	-10.2954
ccifuentes	-10.3046
▁;-)	-10.3046
▁Amazon	-10.3046
▁desarrolla	-10.3046
▁cuerpo	-10.3046
▁ningú	-10.3058
Semana	-10.307
mariagv	-10.315
▁Evolved	-10.315
▁edición	-10.315
Alguien	-10.3151
▁chatea	-10.3152
empleo	-10.3214
rasesparaligarde	-10.3255
▁Destacado	-10.3255
▁Plutón	-10.3255
▁ejemplo	-10.3255
▁inteligente	-10.3255
▁través	-10.3255
▁tampoco	-10.3255
▁efecto	-10.3255
▁candidato	-10.3255
Albiol	-10.3256
▁despues	-10.3256
▁puerta	-10.3256
▁enseña	-10.3257
▁causa	-10.3266
▁publi	-10.3277
▁actividad	-10.3362
▁Conferencia	-10.3362
▁Partido	-10.3362
▁proceso	-10.3363
▁culpa	-10.3366
▁sonrisa	-10.3408
prácticas	-10.3412
Gazette	-10.3469
▁Nuestra	-10.3469
▁universidad	-10.3469
▁Llega	-10.347
▁estrena	-10.347
▁Direction	-10.3578
▁preocupa	-10.3578
Island	-10.3578
▁segunda	-10.3578
▁muerte	-10.3579
▁común	-10.3579
▁carrera	-10.3579
▁TODO	-10.3579
▁recuerdo	-10.3688
▁situación	-10.3688
JOlv	-10.3688
▁centro	-10.3689
☺	-10.3799
CwscwX	-10.3799
▁plaza	-10.3799
Paradise	-10.38
▁abrir	-10.3802
Cifuentes	-10.3911
RamonEspinar	-10.3911
▁WhatsApp	-10.3911
▁respuesta	-10.3911
▁conseguir	-10.3911
lógico	-10.3911
▁evento	-10.3912
▁distint	-10.3915
Investiga	-10.4025
Quién	-10.4025
▁artículo	-10.4025
▁laboral	-10.4025
▁conseguido	-10.414
▁económico	-10.414
▁maquillar	-10.414
▁sábado	-10.414
▁evitar	-10.414
▁rueda	-10.414
▁Tronos	-10.414
▁abrazo	-10.414
▁relacion	-10.424
HumorInformático	-10.4256
▁comenzar	-10.4256
▁crecimiento	-10.4256
▁digital	-10.4256
ísimo	-10.4263
▁alternativa	-10.4374
▁esfuerzo	-10.4374
♡	-10.4374
ODIO	-10.4374
▁negro	-10.4375
Errejón	-10.4493
▁VIDEO	-10.4493
▁representa	-10.4493
lógica	-10.4493
▁Popular	-10.4493
▁hermoso	-10.4493
Econom	-10.4494
▁duele	-10.4496
aventura	-10.45
▁hermosa	-10.4512
▁principio	-10.4613
▁impuestos	-10.4613
▁arregla	-10.4614
▁aprendi	-10.4617
Directo	-10.4628
laboraConPodemos	-10.4735
▁compromiso	-10.4735
▁dólares	-10.4735
▁excelente	-10.4735
▁recuerda	-10.4735
Nosotros	-10.4735
▁fabrica	-10.4735
▁encuentra	-10.4736
▁declara	-10.4738
▁OnePlus	-10.4859
▁enfermedad	-10.4859
▁europeo	-10.4859
▁víctima	-10.4859
▁entiende	-10.4859
Campus	-10.486
Ciudadanos	-10.4984
▁construir	-10.4984
▁línea	-10.4984
▁Lucky	-10.4984
VÍDEO	-10.511
científico	-10.511
▁cerebral	-10.511
▁reunión	-10.511
▁anuncio	-10.511
▁colegio	-10.511
▁violencia	-10.511
▁recomenda	-10.511
ParaLaMayoria	-10.5239
MayoralRafa	-10.5239
feminoacid	-10.5239
▁SORTEO	-10.5239
▁dispositivo	-10.5239
▁Blocks	-10.5239
▁amenaza	-10.5239
▁integra	-10.5242
HAPPY	-10.5368
▁Andalucía	-10.5368
▁necesito	-10.5368
Pregunta	-10.5369
Necesita	-10.5369
Moreno	-10.5369
Nexus	-10.5373
CIÓN	-10.55
▁responsabilidad	-10.55
😱	-10.55
▁imagina	-10.55
▁Púnica	-10.55
▁MÁS	-10.55
emprende	-10.5501
▁conecta	-10.5504
Fernan	-10.5535
AbcdjN	-10.5633
DesayunosTVE	-10.5633
gerigrinerd	-10.5633
▁beneficios	-10.5633
▁perfecta	-10.5633
▁imposible	-10.5633
▁reproduc	-10.5633
▁popular	-10.5633
Medicina	-10.5634
▁enamora	-10.5636
▁sorprende	-10.5769
▁Ayuntamiento	-10.5769
▁WHEELS	-10.5769
▁ayuntamiento	-10.5769
▁cáncer	-10.5769
▁depende	-10.5775
~	-10.5906
▁habitación	-10.5906
▁necesario	-10.5906
❤	-10.5906
▁ilusión	-10.5906
▁reserva	-10.5906
▁solicita	-10.5906
malware	-10.5906
▁Xiaomi	-10.6044
▁gratuita	-10.6044
▁responsable	-10.6044
ministra	-10.6044
▁elegido	-10.6044
ElevenPaths	-10.6185
GanarSeguidores	-10.6185
▁científica	-10.6185
😊	-10.6328
✌	-10.662
👌	-10.6769
[	-11.2513
—	-12.3628
“	-12.4969
«	-12.833
́	-12.833
