<unk>	0
<s>	0
</s>	0
▁de	-3.17489
▁la	-3.72261
▁el	-3.80325
▁que	-3.83017
▁en	-3.86525
▁a	-3.99585
▁y	-4.04029
▁:d	-4.19434
▁un	-4.54351
▁no	-4.57523
▁los	-4.64153
▁para	-4.72045
▁es	-4.72197
▁con	-4.78635
▁del	-4.91322
▁me	-4.93455
▁por	-4.99141
▁:p	-5.00483
▁las	-5.01043
▁se	-5.0956
▁lo	-5.15947
▁una	-5.23607
▁te	-5.2924
▁juego	-5.35408
▁-	-5.3554
▁al	-5.53847
▁mi	-5.61006
▁más	-5.62813
▁si	-5.67193
▁ya	-5.74696
▁como	-5.93471
▁tu	-5.96507
▁pero	-5.99679
▁este	-6.0523
▁su	-6.19727
▁ha	-6.19881
▁yo	-6.21378
▁vía	-6.33645
▁esta	-6.37847
▁pc	-6.37847
▁gracias	-6.384
▁@youtube	-6.41532
▁o	-6.42362
▁hoy	-6.44109
▁cuando	-6.50163
▁todo	-6.5065
▁nuevo	-6.51701
▁hay	-6.5683
▁qué	-6.58776
▁le	-6.61768
▁son	-6.62315
▁nos	-6.63338
▁|	-6.65903
▁está	-6.68368
▁mejor	-6.68618
▁ser	-6.70554
▁ahora	-6.71152
▁muy	-6.71323
▁:	-6.7279
▁todos	-6.76872
▁tengo	-6.78793
▁sobre	-6.80657
▁sin	-6.81034
▁porque	-6.85574
▁tiene	-6.85574
▁ver	-6.87974
▁día	-6.89196
▁mas	-6.91896
▁mañana	-6.92318
▁voy	-6.92529
▁hacer	-6.93594
▁xd	-6.95431
▁eso	-6.9565
▁hace	-6.97302
▁estoy	-6.99096
▁he	-6.99096
▁q	-7.00463
▁va	-7.03608
▁sus	-7.04083
▁desde	-7.0456
▁solo	-7.04799
▁así	-7.04919
▁bien	-7.06978
▁hasta	-7.07592
▁google	-7.10339
▁android	-7.13033
▁ni	-7.13163
▁puede	-7.13163
▁jajaja	-7.15268
▁pp	-7.15268
▁quiero	-7.15668
▁cómo	-7.16069
▁españa	-7.24746
▁soy	-7.25775
▁mis	-7.26516
▁también	-7.26964
▁@sanchezcastejon	-7.27263
▁gente	-7.27864
▁han	-7.27864
▁mucho	-7.28167
▁años	-7.28318
▁siempre	-7.28926
▁nuestro	-7.32811
▁nada	-7.33927
▁aquí	-7.35055
▁vez	-7.3538
▁minecraft	-7.35869
▁os	-7.38016
▁menos	-7.38518
▁vida	-7.39699
▁tan	-7.40039
▁directo	-7.4021
▁dos	-7.41239
▁espero	-7.42803
▁apple	-7.44036
▁puedes	-7.45825
▁gobierno	-7.4655
▁bueno	-7.47463
▁uno	-7.47463
▁algo	-7.47831
▁entre	-7.48015
▁vídeo	-7.4969
▁hola	-7.50066
▁...	-7.50254
▁semana	-7.50822
▁jaja	-7.51393
▁2	-7.51967
▁@uam_madrid	-7.51967
▁días	-7.52159
▁nueva	-7.52352
▁contra	-7.52544
▁video	-7.53125
▁seguridad	-7.53514
▁vamos	-7.53709
▁,	-7.54297
▁esto	-7.54494
▁3	-7.56884
▁rt	-7.57288
▁gran	-7.59333
▁tus	-7.5954
▁mal	-7.60163
▁"el	-7.60372
▁ese	-7.61
▁fue	-7.6121
▁cosas	-7.62056
▁eres	-7.62056
▁jugar	-7.62269
▁les	-7.62482
▁feliz	-7.62909
▁mundo	-7.62909
▁podemos	-7.63553
▁10	-7.64855
▁era	-7.64855
▁tener	-7.65293
▁buenos	-7.65512
▁buen	-7.65732
▁5	-7.66174
▁@microsiervos	-7.66174
▁cada	-7.6684
▁nuestra	-7.67959
▁pues	-7.68185
▁donde	-7.68411
▁cambio	-7.68864
▁¿qué	-7.68864
▁dia	-7.69092
▁nunca	-7.69092
▁:(	-7.6932
▁&lt;3	-7.70237
▁@marianorajoy	-7.73041
▁da	-7.73041
▁creo	-7.73279
▁—	-7.73755
▁primer	-7.74473
▁¿por	-7.74955
▁tiempo	-7.75197
▁estar	-7.75683
▁ir	-7.75683
▁madrid	-7.76415
▁the	-7.76415
▁antes	-7.76907
▁"la	-7.774
▁4	-7.774
▁hemos	-7.774
▁personalizado	-7.774
▁poco	-7.774
▁.	-7.77648
▁canal	-7.77897
▁están	-7.78146
▁perfecto	-7.78395
▁mira	-7.78646
▁año	-7.80161
▁estamos	-7.80416
▁noche	-7.80671
▁primera	-7.81184
▁partido	-7.82218
▁personas	-7.82218
▁e	-7.82478
▁mismo	-7.83262
▁gusta	-7.83525
▁quiere	-7.83525
▁psoe	-7.84583
▁tenemos	-7.84849
▁tienes	-7.85384
▁esa	-7.85922
▁buena	-7.86192
▁fans	-7.86462
▁programa	-7.86462
▁#uam	-7.87006
▁sea	-7.87006
▁unos	-7.88378
▁dice	-7.88932
▁llega	-7.8921
▁sólo	-7.89768
▁política	-7.9033
▁puedo	-7.9033
▁todas	-7.90612
▁sigue	-7.92609
▁#forocambio11j	-7.93187
▁mejores	-7.93478
▁otra	-7.93478
▁muchas	-7.94061
▁millones	-7.94942
▁toda	-7.95534
▁!	-7.95831
▁24h:	-7.96129
▁youtube	-7.96129
▁@ierrejon	-7.96728
▁re	-7.97028
▁fin	-7.9733
▁otro	-7.97633
▁somos	-7.97633
▁:3	-7.98241
▁ti	-7.98546
▁:)	-7.98852
▁cuenta	-7.98852
▁sido	-8.00087
▁2015	-8.00398
▁quien	-8.0071
▁tienen	-8.01023
▁hecho	-8.01337
▁sí	-8.01337
▁alguien	-8.02285
▁1	-8.02603
▁casa	-8.03242
▁dormir	-8.03242
▁jajajaja	-8.03242
▁país	-8.03242
▁estas	-8.03563
▁estado	-8.04857
▁rajoy	-8.05183
▁será	-8.05183
▁6	-8.05511
▁después	-8.05839
▁parece	-8.07164
▁tanto	-8.07164
▁igual	-8.07498
▁juegos	-8.07498
▁one	-8.08169
▁guste	-8.09525
▁x	-8.09525
▁#ciencia	-8.1021
▁@chemaalonso	-8.10554
▁lado	-8.11246
▁#unideverano	-8.11594
▁hora	-8.12293
▁seguir	-8.12644
▁(	-8.12997
▁final	-8.12997
▁@pablo_iglesias_	-8.14421
▁asi	-8.1478
▁favor,muchas	-8.1478
▁estos	-8.15865
▁mientras	-8.15865
▁tú	-8.16229
▁nadie	-8.16962
▁́(	-8.177
▁amor	-8.18071
▁episodio	-8.18817
▁fotos	-8.18817
▁van	-8.18817
▁windows	-8.18817
▁samsung	-8.19192
▁trabajo	-8.19192
▁foto	-8.2109
▁saber	-8.2109
▁has	-8.21859
▁#apple	-8.22246
▁falta	-8.22246
▁podría	-8.22246
▁gusta,suscríbete	-8.23024
▁amo	-8.23416
▁@willyrexyt	-8.24203
▁gustado	-8.24203
▁buenas	-8.25396
▁empleo	-8.25396
▁ganas	-8.25396
▁historia	-8.25396
▁dar	-8.26199
▁momento	-8.26603
▁verdad	-8.27009
▁d	-8.27416
▁futuro	-8.27416
▁@vegetta777	-8.27825
▁¿cómo	-8.27825
▁euros	-8.28236
▁)	-8.28648
▁realidad	-8.28648
▁tras	-8.28648
▁nuevos	-8.29062
▁twitter	-8.29062
▁pasa	-8.29478
▁casi	-8.30315
▁bonito	-8.31159
▁seguro	-8.3201
▁#trabajarhacercrecer	-8.32868
▁no,	-8.32868
▁vos	-8.32868
▁forma	-8.333
▁móvil	-8.33734
▁parte	-8.3417
▁domingo	-8.34607
▁of	-8.34607
▁visto	-8.35047
▁&gt;	-8.35488
▁decir	-8.35488
▁horas	-8.35488
▁pueden	-8.35488
▁sistema	-8.35488
▁tarde	-8.35488
▁💬	-8.35488
▁problema	-8.36825
▁ps4	-8.36825
▁veces	-8.36825
▁juego,	-8.37274
▁poner	-8.37274
▁unas	-8.37274
▁debe	-8.37726
▁grecia	-8.37726
▁ley	-8.37726
▁aunque	-8.38179
▁saludos	-8.38179
▁hablar	-8.39092
▁online	-8.39552
▁+	-8.40478
▁comienza	-8.40478
▁internet	-8.40478
▁#tuitutil	-8.40944
▁lunes	-8.40944
▁ayer	-8.41413
▁play	-8.41413
▁estaba	-8.41883
▁tres	-8.42356
▁queremos	-8.42831
▁queda	-8.43309
▁nosotros	-8.43788
▁disponible	-8.4427
▁lindo	-8.4427
▁minutos	-8.4427
▁muchos	-8.4427
▁sé	-8.4427
▁estará	-8.44754
▁haciendo	-8.44754
▁conferencia	-8.45241
▁pasado	-8.45241
▁poder	-8.45241
▁quieres	-8.45241
▁viene	-8.45241
▁partir	-8.4573
▁tal	-8.46221
▁!!	-8.46715
▁mod	-8.46715
▁xbox	-8.46715
▁}:s	-8.46715
▁¿quieres	-8.47211
▁último	-8.4771
▁"no	-8.48211
▁bueno,	-8.48211
▁i	-8.48211
▁hijos	-8.48715
▁esos	-8.49222
▁salir	-8.49222
▁aún	-8.51273
▁(video)	-8.51792
▁app	-8.51792
▁fuera	-8.51792
▁sino	-8.51792
▁ah	-8.52315
▁sale	-8.52315
▁vas	-8.52315
▁encanta	-8.52839
▁social	-8.52839
▁@psoe	-8.53367
▁datos	-8.53367
▁mujeres	-8.53367
▁abierto	-8.53898
▁gameplay	-8.53898
▁8	-8.54431
▁deja	-8.54431
▁?	-8.54967
▁ante	-8.54967
▁paso	-8.55506
▁sabe	-8.55506
▁siento	-8.55506
▁llegar	-8.56048
▁pedro	-8.56048
▁europa	-8.56593
▁juego.	-8.56593
▁nuestros	-8.57141
▁15	-8.57692
▁20	-8.57692
▁veo	-8.57692
▁viendo	-8.57692
▁ahí	-8.58246
▁luego	-8.58246
▁otros	-8.58246
▁según	-8.58246
▁algún	-8.58803
▁cerebro	-8.58803
▁@pablocasado_	-8.59364
▁durante	-8.59364
▁sabes	-8.59364
▁nuevas	-8.59927
▁políticas	-8.59927
▁breve	-8.60494
▁estás	-8.60494
▁ganar	-8.60494
▁hago	-8.60494
▁lista	-8.60494
▁microsoft	-8.60494
▁cualquier	-8.61063
▁equipo	-8.61063
▁reforma	-8.61063
▁curso	-8.61636
▁derechos	-8.62213
▁versión	-8.62213
▁digo	-8.62792
▁elecciones	-8.62792
▁jajajajaja	-8.62792
▁web	-8.62792
▁acabo	-8.63376
▁cara	-8.63376
▁grande	-8.63376
▁haber	-8.63376
▁proyecto	-8.63376
▁#destacada	-8.63962
▁claro	-8.63962
▁hacen	-8.63962
▁mayor	-8.63962
▁próximo	-8.63962
▁7	-8.64552
▁mujer	-8.64552
▁9	-8.65145
▁amigos	-8.65145
▁black	-8.65743
▁uam	-8.65743
▁cambiar	-8.66343
▁dijo	-8.66343
▁suerte	-8.66343
▁volver	-8.66343
▁(y	-8.66947
▁jugando	-8.67555
▁mesa	-8.67555
▁vaya	-8.67555
▁ve	-8.67555
▁rato	-8.68167
▁"en	-8.68782
▁dinero	-8.68782
▁facebook	-8.68782
▁amigo	-8.69401
▁dios	-8.69401
▁#votapp	-8.70025
▁0	-8.70025
▁aplicaciones	-8.70025
▁ella	-8.70025
▁verano	-8.70025
▁acuerdo	-8.71282
▁galaxy	-8.71917
▁https://t.co/y9tlhfa0gw	-8.71917
▁real	-8.71917
▁videos,seguro	-8.71917
▁votar	-8.71917
▁beta	-8.72556
▁gta	-8.72556
▁gratis	-8.73199
▁nuestras	-8.73199
▁posible	-8.73847
▁ciudadanos	-8.74498
▁favor	-8.74498
▁pone	-8.74498
▁sorteo	-8.74498
▁dejar	-8.75154
▁grandes	-8.75154
▁peor	-8.75154
▁comprar	-8.75814
▁españoles	-8.75814
▁música	-8.75814
▁ops	-8.75814
▁universidad	-8.75814
▁:o	-8.76478
▁blog	-8.76478
▁ciencia	-8.76478
▁ios	-8.76478
▁mierda	-8.76478
▁niños	-8.76478
▁persona	-8.76478
▁único	-8.76478
▁#xelfuturodeespaña	-8.77147
▁seguirme,	-8.77147
▁punto	-8.77821
▁via	-8.77821
▁cumple	-8.78499
▁tipo	-8.78499
▁madre	-8.79181
▁sigo	-8.79181
▁dentro	-8.79869
▁español	-8.79869
▁mucha	-8.79869
▁&amp;	-8.80561
▁genial	-8.80561
▁haya	-8.80561
▁hombre	-8.80561
▁voto	-8.80561
▁caso	-8.81257
▁noches	-8.81257
▁problemas	-8.81257
▁vistazo	-8.81257
▁algunos	-8.82666
▁dicen	-8.82666
▁in	-8.82666
▁meses	-8.82666
▁pantalla	-8.82666
▁pasar	-8.82666
▁electoral	-8.83378
▁empieza	-8.83378
▁corrupción	-8.84095
▁crear	-8.84095
▁follow	-8.84095
▁viernes	-8.84095
▁30	-8.84817
▁comer	-8.84817
▁entrevista	-8.84817
▁sí,	-8.84817
▁@ppopular	-8.85544
▁familia	-8.85544
▁pc,	-8.85544
▁quién	-8.85544
▁super	-8.85544
▁votada	-8.85544
▁cosa	-8.86276
▁gustó	-8.86276
▁jóvenes	-8.86276
▁coche	-8.87014
▁dias	-8.87014
▁galletas	-8.87014
▁medio	-8.87014
▁mes	-8.87014
▁última	-8.87014
▁agua	-8.87758
▁campaña	-8.87758
▁iphone	-8.87758
▁sería	-8.87758
▁@dowrow	-8.88507
▁acto	-8.88507
▁aplicación	-8.88507
▁..	-8.89262
▁debería	-8.89262
▁luz	-8.89262
▁!!!	-8.90022
▁ellos	-8.90022
▁funciona	-8.90022
▁siendo	-8.90022
▁vale	-8.90022
▁¿te	-8.90022
▁apoyo	-8.90788
▁especial	-8.90788
▁había	-8.90788
▁minecraft:	-8.90788
▁pueblo	-8.90788
▁serie	-8.90788
▁descubren	-8.91561
▁gracias!	-8.91561
▁habla	-8.91561
▁llegará	-8.91561
▁mano	-8.91561
▁usar	-8.91561
▁ayuda	-8.92339
▁debate	-8.92339
▁leída	-8.92339
▁modelo	-8.92339
▁nombre	-8.92339
▁pierdas	-8.92339
▁presidente	-8.92339
▁quieren	-8.92339
▁whatsapp	-8.92339
▁#apocalipsisminecraft4	-8.93123
▁[eng]	-8.93123
▁cabeza	-8.93123
▁devuelvo	-8.93123
▁lugar	-8.93123
▁"los	-8.93914
▁conoce	-8.93914
▁estudiar	-8.93914
▁frente	-8.93914
▁modo	-8.93914
▁recuperación	-8.93914
▁12	-8.94711
▁mayoría	-8.94711
▁cámara	-8.95514
▁idea	-8.95514
▁nena,	-8.95514
▁aquí:	-8.96323
▁dan	-8.96323
▁pronto	-8.96323
▁vi	-8.96323
▁¡no	-8.96323
▁grupo	-8.9714
▁virtual	-8.9714
▁♥	-8.9714
▁entonces	-8.97963
▁jajaj	-8.97963
▁lleva	-8.97963
▁ven	-8.97963
▁@bystaxx	-8.98793
▁despues	-8.98793
▁habrá	-8.98793
▁julio	-8.98793
▁miedo	-8.98793
▁sos	-8.98793
▁moto	-8.9963
▁pensar	-8.9963
▁si,	-8.9963
▁13	-9.00473
▁:d.	-9.00473
▁^^	-9.00473
▁acaba	-9.00473
▁alguna	-9.00473
▁corazón	-9.00473
▁importante	-9.00473
▁lg	-9.00473
▁mil	-9.00473
▁red	-9.00473
▁salud	-9.00473
▁derecho	-9.01325
▁empiece	-9.01325
▁hagas	-9.01325
▁lucky	-9.01325
▁vs	-9.01325
▁comentada	-9.02183
▁escuchar	-9.02183
▁llama	-9.02183
▁otras	-9.02183
▁prueba	-9.02183
▁sueño	-9.02183
▁teléfono	-9.02183
▁vivir	-9.02183
▁internacional	-9.03049
▁leer	-9.03049
▁(:	-9.03922
▁@irene_montero_	-9.03922
▁edición	-9.03922
▁empezar	-9.03922
▁fav	-9.03922
▁información	-9.03922
▁prensa	-9.03922
▁😂	-9.03922
▁amiga	-9.04803
▁lucha	-9.04803
▁vuelta	-9.04803
▁aqui	-9.05692
▁cine	-9.05692
▁cuentas	-9.05692
▁educación	-9.05692
▁ministro	-9.05692
▁necesita	-9.05692
▁presenta	-9.05692
▁primero	-9.05692
▁socialistas	-9.05692
▁tendrá	-9.05692
▁toca	-9.05692
▁tomar	-9.05692
▁tuit	-9.05692
▁#rdppodemos	-9.06589
▁@pnique	-9.06589
▁libro	-9.06589
▁pa	-9.06589
▁san	-9.06589
▁sony	-9.06589
▁tenía	-9.06589
▁chica	-9.07494
▁estudios	-9.07494
▁gato	-9.07494
▁hablando	-9.07494
▁iba	-9.07494
▁info:	-9.07494
▁manera	-9.07494
▁tambien	-9.07494
▁trabajar	-9.07494
▁voz	-9.07494
▁}:o	-9.07494
▁#cmin	-9.08407
▁:d.https://t.co/dzilyhtytb	-9.08407
▁acción	-9.08407
▁democracia	-9.08407
▁dicho	-9.08407
▁imágenes	-9.08407
▁media	-9.08407
▁popular	-9.08407
▁puta	-9.08407
▁quieras	-9.08407
▁sánchez	-9.08407
▁todavía	-9.08407
▁descargar	-9.09329
▁espacio	-9.09329
▁excelente	-9.09329
▁hizo	-9.09329
▁imagen	-9.09329
▁linda	-9.09329
▁puesto	-9.09329
▁riesgo	-9.09329
▁sociales	-9.09329
▁vuelve	-9.09329
▁vídeos	-9.09329
▁#digosívotopsoe	-9.10259
▁conocer	-9.10259
▁dado	-9.10259
▁haces	-9.10259
▁mejorar	-9.10259
▁necesito	-9.10259
▁noticia	-9.10259
▁survival	-9.10259
▁tv	-9.10259
▁#digosivotopsoe	-9.11198
▁café	-9.11198
▁centro	-9.11198
▁consejos	-9.11198
▁esperando	-9.11198
▁llevo	-9.11198
▁medidas	-9.11198
▁ningún	-9.11198
▁segunda	-9.11198
▁temporada	-9.11198
▁"las	-9.12146
▁ark:	-9.12146
▁busca	-9.12146
▁entra	-9.12146
▁esas	-9.12146
▁hacia	-9.12146
▁permite	-9.12146
▁recuerda	-9.12146
▁vacaciones	-9.12146
▁100	-9.13103
▁aun	-9.13103
▁chicas	-9.13103
▁economía	-9.13103
▁paro	-9.13103
▁24	-9.14069
▁clases	-9.14069
▁congreso	-9.14069
▁eleven	-9.14069
▁hombres	-9.14069
▁mala	-9.14069
▁plazo	-9.14069
▁pregunta	-9.14069
▁segundo	-9.14069
▁sol	-9.14069
▁tema	-9.14069
▁v	-9.14069
▁#gobernarparalamayoría	-9.15045
▁=	-9.15045
▁acabar	-9.15045
▁aprender	-9.15045
▁deberías	-9.15045
▁mayo	-9.15045
▁pide	-9.15045
▁tenga	-9.15045
▁verme	-9.15045
▁#rutadelcambio	-9.1603
▁camino	-9.1603
▁encuentro	-9.1603
▁paths	-9.1603
▁#felizmiercoles	-9.17025
▁carmena	-9.17025
▁quienes	-9.17025
▁vemos	-9.17025
▁"	-9.1803
▁3d	-9.1803
▁@alevysoler	-9.1803
▁c/	-9.1803
▁conmigo?	-9.1803
▁dale	-9.1803
▁felicidades	-9.1803
▁partidos	-9.1803
▁sociedad	-9.1803
▁tampoco	-9.1803
▁trabajando	-9.1803
▁griego	-9.19045
▁htc	-9.19045
▁igualdad	-9.19045
▁móviles	-9.19045
▁reunión	-9.19045
▁uso	-9.19045
▁¿que	-9.19045
▁#wtf	-9.20071
▁anuncia	-9.20071
▁bajo	-9.20071
▁crisis	-9.20071
▁código	-9.20071
▁demasiado	-9.20071
▁extraño	-9.20071
▁ordenador	-9.20071
▁pena	-9.20071
▁plan	-9.20071
▁servicio	-9.20071
▁tierra	-9.20071
▁análisis	-9.21107
▁días!	-9.21107
▁rueda	-9.21107
▁seguimos	-9.21107
▁–	-9.21107
▁@ahorapodemos	-9.22154
▁apps	-9.22154
▁bonita	-9.22154
▁call	-9.22154
▁chatear	-9.22154
▁cultura	-9.22154
▁cumpleaños	-9.22154
▁debes	-9.22154
▁esperamos	-9.22154
▁fuerza	-9.22154
▁junio	-9.22154
▁pase	-9.22154
▁servicios	-9.22154
▁"hay	-9.23212
▁#osx	-9.23212
▁11	-9.23212
▁cual	-9.23212
▁cuanto	-9.23212
▁dejo	-9.23212
▁dolor	-9.23212
▁https://t.co/kxwwwbwhhi	-9.23212
▁m	-9.23212
▁niño	-9.23212
▁través	-9.23212
▁él	-9.23212
▁bastante	-9.24282
▁comunidad	-9.24282
▁gana	-9.24282
▁libros	-9.24282
▁preguntas	-9.24282
▁presentación	-9.24282
▁primarias	-9.24282
▁;-)	-9.25363
▁alta	-9.25363
▁capaz	-9.25363
▁encontrar	-9.25363
▁hice	-9.25363
▁interior	-9.25363
▁libertad	-9.25363
▁nivel	-9.25363
▁político	-9.25363
▁star	-9.25363
▁́)	-9.25363
▁esperar	-9.26456
▁evolved	-9.26456
▁memoria	-9.26456
▁mí	-9.26456
▁no.	-9.26456
▁premio	-9.26456
▁sacar	-9.26456
▁sanidad	-9.26456
▁¿es	-9.26456
▁calidad	-9.27561
▁cerca	-9.27561
▁estilo	-9.27561
▁http://t.co/wjolv7dgr2	-9.27561
▁llevar	-9.27561
▁propio	-9.27561
▁qe	-9.27561
▁sentido	-9.27561
▁17	-9.28678
▁encima	-9.28678
▁jajajaj	-9.28678
▁like	-9.28678
▁no?	-9.28678
▁odio	-9.28678
▁staxx	-9.28678
▁últimos	-9.28678
▁#orgullo2015	-9.29808
▁china	-9.29808
▁ciudad	-9.29808
▁empresas	-9.29808
▁happy	-9.29808
▁listo	-9.29808
▁muerte	-9.29808
▁pablo	-9.29808
▁redes	-9.29808
▁situación	-9.29808
▁usted	-9.29808
▁videos	-9.29808
▁clase	-9.30951
▁española	-9.30951
▁fondo	-9.30951
▁jueves	-9.30951
▁pedir	-9.30951
▁plaza	-9.30951
▁puto	-9.30951
▁señor	-9.30951
▁¡feliz	-9.30951
▁¿cuál	-9.30951
▁¿y	-9.30951
▁amazon	-9.32107
▁blocks	-9.32107
▁esperanza	-9.32107
▁estudiantes	-9.32107
▁gobiernos	-9.32107
▁http://t.co/cwscwxkpcc	-9.32107
▁ido	-9.32107
▁importa	-9.32107
▁maquillar	-9.32107
▁orgullo	-9.32107
▁s6	-9.32107
▁sabemos	-9.32107
▁sean	-9.32107
▁septiembre	-9.32107
▁subir	-9.32107
▁25	-9.33277
▁:*	-9.33277
▁calle	-9.33277
▁concurso	-9.33277
▁gracia	-9.33277
▁hijo	-9.33277
▁hoy,	-9.33277
▁mando	-9.33277
▁nacional	-9.33277
▁resto	-9.33277
▁usuarios	-9.33277
▁watch	-9.33277
▁entrar	-9.3446
▁novia	-9.3446
▁pequeño	-9.3446
▁precio	-9.3446
▁pública	-9.3446
▁tecnología	-9.3446
▁ustedes	-9.3446
▁única	-9.3446
▁#ios	-9.35658
▁alcalde	-9.35658
▁algun	-9.35658
▁buscar	-9.35658
▁caja	-9.35658
▁cie	-9.35658
▁cuatro	-9.35658
▁instituciones	-9.35658
▁jejej	-9.35658
▁juego:	-9.35658
▁justo	-9.35658
▁objetivo	-9.35658
▁padres	-9.35658
▁participa	-9.35658
▁vota	-9.35658
▁éxito	-9.35658
▁#mtvhottest	-9.3687
▁@ramonespinar	-9.3687
▁carrera	-9.3687
▁foro	-9.3687
▁garry`s	-9.3687
▁llegue	-9.3687
▁mundial	-9.3687
▁tenido	-9.3687
▁#colorpsoe	-9.38097
▁#votapsoe	-9.38097
▁2014	-9.38097
▁consulta	-9.38097
▁energía	-9.38097
▁hermosa	-9.38097
▁junto	-9.38097
▁perder	-9.38097
▁prácticas	-9.38097
▁sábado	-9.38097
▁"es	-9.39339
▁#tecnología	-9.39339
▁18	-9.39339
▁:/	-9.39339
▁@ahernandovera	-9.39339
▁@mdcospedal	-9.39339
▁doble	-9.39339
▁inicio	-9.39339
▁lanza	-9.39339
▁llegan	-9.39339
▁padre	-9.39339
▁rápido	-9.39339
▁¡buenos	-9.39339
▁clave	-9.40597
▁comida	-9.40597
▁destacado:	-9.40597
▁estudio	-9.40597
▁fui	-9.40597
▁loco	-9.40597
▁misma	-9.40597
▁momentos	-9.40597
▁oneplus	-9.40597
▁participar	-9.40597
▁quedo	-9.40597
▁#gobernarparalamayoria	-9.41871
▁además	-9.41871
▁ayuntamiento	-9.41871
▁convocatoria	-9.41871
▁de...	-9.41871
▁echale	-9.41871
▁fuerte	-9.41871
▁fácil	-9.41871
▁gusto	-9.41871
▁haga	-9.41871
▁humor	-9.41871
▁jornada	-9.41871
▁libre	-9.41871
▁muestra	-9.41871
▁próxima	-9.41871
▁quedan	-9.41871
▁relación	-9.41871
▁smartphone	-9.41871
▁triste	-9.41871
▁#psoe24m	-9.43161
▁50	-9.43161
▁cama	-9.43161
▁canción	-9.43161
▁ciclo	-9.43161
▁ciudadanía	-9.43161
▁consejo	-9.43161
▁deuda	-9.43161
▁dólares	-9.43161
▁josé	-9.43161
▁llegado	-9.43161
▁número	-9.43161
▁oferta	-9.43161
▁película	-9.43161
▁saben	-9.43161
▁tengas	-9.43161
▁vivo	-9.43161
▁batería	-9.44469
▁becas	-9.44469
▁conseguido	-9.44469
▁felicidad	-9.44469
▁financiación	-9.44469
▁friki	-9.44469
▁gestión	-9.44469
▁grabar	-9.44469
▁manos	-9.44469
▁nada,	-9.44469
▁palabra	-9.44469
▁store	-9.44469
▁"lo	-9.45793
▁@feminoacid	-9.45793
▁ahi	-9.45793
▁duele	-9.45793
▁formación	-9.45793
▁malo	-9.45793
▁programas	-9.45793
▁sonrisa	-9.45793
▁#desayunostve	-9.47135
▁#sesióndecontrol	-9.47135
▁@rubiu5	-9.47135
▁baja	-9.47135
▁construir	-9.47135
▁contigo	-9.47135
▁evitar	-9.47135
▁gustaría	-9.47135
▁hermoso	-9.47135
▁joven	-9.47135
▁justin	-9.47135
▁mensaje	-9.47135
▁nexus	-9.47135
▁palabras	-9.47135
▁primeros	-9.47135
▁tweet.	-9.47135
▁viaje	-9.47135
▁wifi	-9.47135
▁&gt;&gt;&gt;	-9.48496
▁@gerigrinerd	-9.48496
▁cambios	-9.48496
▁chicos	-9.48496
▁compra	-9.48496
▁deben	-9.48496
▁ejemplo	-9.48496
▁evento	-9.48496
▁experiencia	-9.48496
▁finde	-9.48496
▁izquierda	-9.48496
▁papel	-9.48496
▁pc.	-9.48496
▁recuperar	-9.48496
▁resultados	-9.48496
▁violencia	-9.48496
▁wheels:	-9.48496
▁#colaboraconpodemos	-9.49875
▁@josemanuel_lop	-9.49875
▁ay	-9.49875
▁bien,	-9.49875
▁color	-9.49875
▁creación	-9.49875
▁culpa	-9.49875
▁dónde	-9.49875
▁empresa	-9.49875
▁gobernar	-9.49875
▁gustan	-9.49875
▁martes	-9.49875
▁mitad	-9.49875
▁pierdas!	-9.49875
▁proceso	-9.49875
▁público	-9.49875
▁toma	-9.49875
▁vegetta	-9.49875
▁14	-9.51274
▁@mariagv	-9.51274
▁anda	-9.51274
▁beneficios	-9.51274
▁big	-9.51274
▁crecimiento	-9.51274
▁cuerpo	-9.51274
▁escuela	-9.51274
▁ideas	-9.51274
▁madrid.	-9.51274
▁ojalá	-9.51274
▁pacto	-9.51274
▁plutón	-9.51274
▁propuestas	-9.51274
▁pueda	-9.51274
▁sera	-9.51274
▁solidaridad	-9.51274
▁terminar	-9.51274
▁usa	-9.51274
▁verlo	-9.51274
▁#empleo	-9.52692
▁16	-9.52692
▁accesorios	-9.52692
▁cierto	-9.52692
▁diferencia	-9.52692
▁escribir	-9.52692
▁fecha	-9.52692
▁habitación	-9.52692
▁hermano	-9.52692
▁intervención	-9.52692
▁investigación	-9.52692
▁juega	-9.52692
▁maquillaje	-9.52692
▁necesitamos	-9.52692
▁saludo	-9.52692
▁trabajadores	-9.52692
▁ue	-9.52692
▁¿quién	-9.52692
▁40	-9.54131
▁artículo	-9.54131
▁cinco	-9.54131
▁económica	-9.54131
▁entrada	-9.54131
▁estrena	-9.54131
▁informática	-9.54131
▁ojo	-9.54131
▁realmente	-9.54131
▁recuerdo	-9.54131
▁regalo	-9.54131
▁saga	-9.54131
▁#pge2016	-9.55591
▁:d.https://t.co/abcdjnaz6r	-9.55591
▁@javipolo91	-9.55591
▁abrir	-9.55591
▁boca	-9.55591
▁debemos	-9.55591
▁elegido	-9.55591
▁g	-9.55591
▁ninguna	-9.55591
▁oficial	-9.55591
▁ojos	-9.55591
▁ok	-9.55591
▁películas	-9.55591
▁playstation	-9.55591
▁premios	-9.55591
▁proyectos	-9.55591
▁razones	-9.55591
▁reformas	-9.55591
▁serio	-9.55591
▁vida.	-9.55591
▁xiaomi	-9.55591
▁"si	-9.57073
▁@el_pais	-9.57073
▁@mayoralrafa	-9.57073
▁allá	-9.57073
▁dando	-9.57073
▁das	-9.57073
▁deporte	-9.57073
▁direction	-9.57073
▁efecto	-9.57073
▁entiendo	-9.57073
▁estrategia	-9.57073
▁mama	-9.57073
▁mola	-9.57073
▁perdido	-9.57073
▁pongo	-9.57073
▁puntos	-9.57073
▁sexo	-9.57073
▁to	-9.57073
▁2016	-9.58576
▁@0xword	-9.58576
▁abrazo	-9.58576
▁algunas	-9.58576
▁cataluña	-9.58576
▁crea	-9.58576
▁cáncer	-9.58576
▁esté	-9.58576
▁llego	-9.58576
▁propuesta	-9.58576
▁razón	-9.58576
▁solar	-9.58576
▁unión	-9.58576
▁visita	-9.58576
▁#latch	-9.60103
▁.un	-9.60103
▁@javiermaroto	-9.60103
▁ayudar	-9.60103
▁base	-9.60103
▁carga	-9.60103
▁control	-9.60103
▁cursos	-9.60103
▁entrega	-9.60103
▁estaré	-9.60103
▁existe	-9.60103
▁latch	-9.60103
▁ojala	-9.60103
▁plus	-9.60103
▁podéis	-9.60103
▁policía	-9.60103
▁pp,	-9.60103
▁sirve	-9.60103
▁smite	-9.60103
▁trata	-9.60103
▁tweet	-9.60103
▁willyrex:	-9.60103
▁@martinezmaillo	-9.61654
▁@uam_gazette	-9.61654
▁abre	-9.61654
▁canciones	-9.61654
▁concierto	-9.61654
▁deje	-9.61654
▁diciendo	-9.61654
▁llevan	-9.61654
▁mejora	-9.61654
▁onda	-9.61654
▁perro	-9.61654
▁sesión	-9.61654
▁sola	-9.61654
▁venir	-9.61654
▁#diminutos2	-9.63228
▁@elevenpaths	-9.63228
▁colegio	-9.63228
▁conseguir	-9.63228
▁darle	-9.63228
▁digital	-9.63228
▁error	-9.63228
▁esfuerzo	-9.63228
▁jeje	-9.63228
▁lleno	-9.63228
▁luis	-9.63228
▁muere	-9.63228
▁note	-9.63228
▁pc!	-9.63228
▁profesor	-9.63228
▁respuesta	-9.63228
▁risa	-9.63228
▁víctimas	-9.63228
▁¿a	-9.63228
▁#juegos	-9.64828
▁acceso	-9.64828
▁coches	-9.64828
▁cuesta	-9.64828
▁doy	-9.64828
▁duro	-9.64828
▁económico	-9.64828
▁eran	-9.64828
▁hará	-9.64828
▁instalar	-9.64828
▁juan	-9.64828
▁juntos	-9.64828
▁mario	-9.64828
▁noticias	-9.64828
▁par	-9.64828
▁peli	-9.64828
▁pelo	-9.64828
▁pensando	-9.64828
▁sitio	-9.64828
▁tablet	-9.64828
▁teléfonos	-9.64828
▁tronos	-9.64828
▁u	-9.64828
▁}:d	-9.64828
▁&gt;:d	-9.66455
▁-.-	-9.66455
▁:v	-9.66455
▁agosto	-9.66455
▁chrome	-9.66455
▁completo	-9.66455
▁diciembre	-9.66455
▁diga	-9.66455
▁estan	-9.66455
▁física	-9.66455
▁general	-9.66455
▁inteligente	-9.66455
▁marcha	-9.66455
▁mejorando	-9.66455
▁new	-9.66455
▁normal	-9.66455
▁nota	-9.66455
▁quede	-9.66455
▁reloj	-9.66455
▁seria	-9.66455
▁usando	-9.66455
▁vista	-9.66455
▁vive	-9.66455
▁carlos	-9.68108
▁convierte	-9.68108
▁diez	-9.68108
▁dije	-9.68108
▁diseño	-9.68108
▁escuchando	-9.68108
▁espera	-9.68108
▁fiesta	-9.68108
▁john	-9.68108
▁podrás	-9.68108
▁serán	-9.68108
▁súper	-9.68108
▁tenes	-9.68108
▁vienen	-9.68108
▁#internet	-9.69788
▁--&gt;	-9.69788
▁26	-9.69788
▁@ccifuentes	-9.69788
▁banda	-9.69788
▁bieber	-9.69788
▁cae	-9.69788
▁clausura	-9.69788
▁compromiso	-9.69788
▁https://t.co/yfvo4gcgij	-9.69788
▁jajajajajaja	-9.69788
▁largo	-9.69788
▁material	-9.69788
▁mañana,	-9.69788
▁nasa	-9.69788
▁novio	-9.69788
▁pobreza	-9.69788
▁suena	-9.69788
▁tratar	-9.69788
▁verte	-9.69788
▁¡he	-9.69788
▁#debatetm	-9.71498
▁2:	-9.71498
▁@cesarluena	-9.71498
▁alternativa	-9.71498
▁disfrutar	-9.71498
▁encuentra	-9.71498
▁epic	-9.71498
▁espacial	-9.71498
▁españa,	-9.71498
▁españa.	-9.71498
▁hacemos	-9.71498
▁javier	-9.71498
▁justicia	-9.71498
▁mapa	-9.71498
▁medios	-9.71498
▁pocos	-9.71498
▁podrá	-9.71498
▁poquito	-9.71498
▁recortes	-9.71498
▁siguen	-9.71498
▁streaming	-9.71498
▁tengan	-9.71498
▁uam!	-9.71498
▁universitario	-9.71498
▁universo	-9.71498
▁ves	-9.71498
▁vuelto	-9.71498
▁@fyl_uam	-9.73237
▁bandera	-9.73237
▁conmigo	-9.73237
▁defender	-9.73237
▁eeuu	-9.73237
▁favorito	-9.73237
▁fiscal	-9.73237
▁hola,	-9.73237
▁http://t.co/08ez0fzjai	-9.73237
▁ilusión	-9.73237
▁ja	-9.73237
▁k	-9.73237
▁nokia	-9.73237
▁parque	-9.73237
▁puerta	-9.73237
▁quería	-9.73237
▁regreso	-9.73237
▁resumen	-9.73237
▁rico	-9.73237
▁smartphones	-9.73237
▁wear	-9.73237
▁#elcambioqueune	-9.75007
▁#yovotopsoe	-9.75007
▁.@pablocasado_	-9.75007
▁:d!	-9.75007
▁@derecho_uam	-9.75007
▁@pbustinduy	-9.75007
▁barcelona	-9.75007
▁duty:	-9.75007
▁enhorabuena	-9.75007
▁euro	-9.75007
▁gama	-9.75007
▁gratuito	-9.75007
▁hi	-9.75007
▁homenaje	-9.75007
▁info	-9.75007
▁mensajes	-9.75007
▁mente	-9.75007
▁motorola	-9.75007
▁oficiales	-9.75007
▁oficina	-9.75007
▁oportunidad	-9.75007
▁pobre	-9.75007
▁seguirme	-9.75007
▁taller	-9.75007
▁top	-9.75007
▁varios	-9.75007
▁/	-9.76809
▁19	-9.76809
▁21	-9.76809
▁4k	-9.76809
▁@c_floriano	-9.76809
▁@trolerotutos	-9.76809
▁abril	-9.76809
▁afecta	-9.76809
▁atención	-9.76809
▁bajar	-9.76809
▁común	-9.76809
▁d:	-9.76809
▁descarga	-9.76809
▁di	-9.76809
▁edad	-9.76809
▁ejercicio	-9.76809
▁felices	-9.76809
▁guerra	-9.76809
▁laboral	-9.76809
▁lol	-9.76809
▁mamá	-9.76809
▁marca	-9.76809
▁monster	-9.76809
▁necesitas	-9.76809
▁novedades	-9.76809
▁origen	-9.76809
▁participación	-9.76809
▁segundos	-9.76809
▁siete	-9.76809
▁significa	-9.76809
▁tenéis	-9.76809
▁tiempos	-9.76809
▁viejo	-9.76809
▁.@marianorajoy	-9.78644
▁3:	-9.78644
▁@e1am1g01nf0rma1	-9.78644
▁abierta	-9.78644
▁andalucía	-9.78644
▁causa	-9.78644
▁constitución	-9.78644
▁desarrollo	-9.78644
▁difícil	-9.78644
▁disco	-9.78644
▁divertido	-9.78644
▁eh	-9.78644
▁enero	-9.78644
▁gamer,	-9.78644
▁hacerlo	-9.78644
▁hambre	-9.78644
▁impuestos	-9.78644
▁inscripción	-9.78644
▁mirar	-9.78644
▁nose	-9.78644
▁ofrece	-9.78644
▁parlamento	-9.78644
▁perfecta	-9.78644
▁playa	-9.78644
▁políticos	-9.78644
▁primeras	-9.78644
▁relaciones	-9.78644
▁tanta	-9.78644
▁wars	-9.78644
▁22	-9.80513
▁@towngameplay	-9.80513
▁and	-9.80513
▁ando	-9.80513
▁ayuntamientos	-9.80513
▁bien.	-9.80513
▁científicos	-9.80513
▁directo:	-9.80513
▁día.	-9.80513
▁echa	-9.80513
▁elegir	-9.80513
▁europea	-9.80513
▁fan	-9.80513
▁imposible	-9.80513
▁informático	-9.80513
▁jornadas	-9.80513
▁logro	-9.80513
▁marzo	-9.80513
▁mínimo	-9.80513
▁negro	-9.80513
▁púnica	-9.80513
▁rol	-9.80513
▁salen	-9.80513
▁salga	-9.80513
▁@astrocosas	-9.82418
▁actividades	-9.82418
▁aire	-9.82418
▁batalla	-9.82418
▁calor	-9.82418
▁chocolate	-9.82418
▁correo	-9.82418
▁cree	-9.82418
▁demás	-9.82418
▁derecha	-9.82418
▁descubre	-9.82418
▁europeo	-9.82418
▁fútbol	-9.82418
▁http://t.co/mvt7jtx7fy	-9.82418
▁leche	-9.82418
▁lollipop	-9.82418
▁minuto	-9.82418
▁musica	-9.82418
▁pagar	-9.82418
▁pasando	-9.82418
▁piensa	-9.82418
▁podrían	-9.82418
▁project	-9.82418
▁recomiendo	-9.82418
▁recursos	-9.82418
▁unidad	-9.82418
▁velocidad	-9.82418
▁vieja	-9.82418
▁votado	-9.82418
▁"hemos	-9.84359
▁#madrid	-9.84359
▁:c	-9.84359
▁@garnachod	-9.84359
▁@opeuam	-9.84359
▁@pascualsergio	-9.84359
▁actualización	-9.84359
▁acá	-9.84359
▁aumentar	-9.84359
▁bolsa	-9.84359
▁deseo	-9.84359
▁detalles	-9.84359
▁en:	-9.84359
▁fernández	-9.84359
▁ganado	-9.84359
▁huawei	-9.84359
▁intento	-9.84359
▁is	-9.84359
▁línea	-9.84359
▁mayores	-9.84359
▁nada.	-9.84359
▁necesario	-9.84359
▁paga	-9.84359
▁pizza	-9.84359
▁pp.	-9.84359
▁socialista	-9.84359
▁sube	-9.84359
▁tarea	-9.84359
▁tenia	-9.84359
▁terror	-9.84359
▁tipos	-9.84359
▁volverá	-9.84359
▁wii	-9.84359
▁@isabelvaldesque	-9.8634
▁aguirre	-9.8634
▁alto	-9.8634
▁bienestar	-9.8634
▁candidato	-9.8634
▁cierre	-9.8634
▁creadores	-9.8634
▁dispositivos	-9.8634
▁día:	-9.8634
▁explica	-9.8634
▁gente.	-9.8634
▁guía	-9.8634
▁incluso	-9.8634
▁ipad	-9.8634
▁manda	-9.8634
▁mantener	-9.8634
▁mercado	-9.8634
▁miles	-9.8634
▁morir	-9.8634
▁navidad	-9.8634
▁nintendo	-9.8634
▁octubre	-9.8634
▁oye	-9.8634
▁países	-9.8634
▁podido	-9.8634
▁presentan	-9.8634
▁recibe	-9.8634
▁recordar	-9.8634
▁récord	-9.8634
▁seguidores	-9.8634
▁siga	-9.8634
▁solicitud	-9.8634
▁steam	-9.8634
▁zona	-9.8634
▁"con	-9.8836
▁"estamos	-9.8836
▁#estudiantes	-9.8836
▁#iphone	-9.8836
▁ataque	-9.8836
▁comenzar	-9.8836
▁compañeros	-9.8836
▁confianza	-9.8836
▁contacto	-9.8836
▁duda	-9.8836
▁for	-9.8836
▁island	-9.8836
▁ocurre	-9.8836
▁prepara	-9.8836
▁presupuestos	-9.8836
▁protección	-9.8836
▁página	-9.8836
▁quiera	-9.8836
▁reglas	-9.8836
▁rey	-9.8836
▁ropa	-9.8836
▁s	-9.8836
▁siii	-9.8836
▁solicitar	-9.8836
▁síguelo	-9.8836
▁xperia	-9.8836
▁"queremos	-9.90422
▁#bibliotecauam	-9.90422
▁#cine	-9.90422
▁#enpodemostúdecides	-9.90422
▁#foroporelcambio	-9.90422
▁#gameinsight	-9.90422
▁.@marianorajoy:	-9.90422
▁autónoma	-9.90422
▁capítulo	-9.90422
▁compartir	-9.90422
▁dio	-9.90422
▁disfruta	-9.90422
▁díaz	-9.90422
▁firma	-9.90422
▁flash	-9.90422
▁formas	-9.90422
▁inteligencia	-9.90422
▁jamás	-9.90422
▁lanzamiento	-9.90422
▁llaman	-9.90422
▁mapas	-9.90422
▁mio	-9.90422
▁murder	-9.90422
▁papa	-9.90422
▁pasan	-9.90422
▁pie	-9.90422
▁podcast	-9.90422
▁principio	-9.90422
▁probar	-9.90422
▁responsabilidad	-9.90422
▁robot	-9.90422
▁salido	-9.90422
▁semanas	-9.90422
▁transparencia	-9.90422
▁venta	-9.90422
▁viste	-9.90422
▁"a	-9.92527
▁#felizlunes	-9.92527
▁2!	-9.92527
▁aca	-9.92527
▁anoche	-9.92527
▁apenas	-9.92527
▁buscando	-9.92527
▁caer	-9.92527
▁cargo	-9.92527
▁charla	-9.92527
▁comisión	-9.92527
▁errores	-9.92527
▁familias	-9.92527
▁feo	-9.92527
▁guapa	-9.92527
▁hablo	-9.92527
▁http://t.co/op525tjwde	-9.92527
▁iglesias	-9.92527
▁instagram	-9.92527
▁juego?	-9.92527
▁l@s	-9.92527
▁niña	-9.92527
▁partida	-9.92527
▁pienso	-9.92527
▁pinta	-9.92527
▁preparando	-9.92527
▁seis	-9.92527
▁siguiente	-9.92527
▁temas	-9.92527
▁tesla	-9.92527
▁total	-9.92527
▁uff	-9.92527
▁votos	-9.92527
▁witcher	-9.92527
▁#un19dejuliopodemos	-9.94678
▁#unasprimariasparaganar	-9.94678
▁@equipogabilondo	-9.94678
▁acerca	-9.94678
▁alimentos	-9.94678
▁aparece	-9.94678
▁auto	-9.94678
▁avión	-9.94678
▁campo	-9.94678
▁condiciones	-9.94678
▁cuestión	-9.94678
▁enfermedad	-9.94678
▁game	-9.94678
▁gente"	-9.94678
▁hacerte	-9.94678
▁hermana	-9.94678
▁intentar	-9.94678
▁maps	-9.94678
▁matemáticas	-9.94678
▁original	-9.94678
▁recien	-9.94678
▁recién	-9.94678
▁reproducción	-9.94678
▁rescate	-9.94678
▁responsable	-9.94678
▁resultado	-9.94678
▁smartwatch	-9.94678
▁spotify	-9.94678
▁tuyo	-9.94678
▁usb	-9.94678
▁vosotros	-9.94678
▁y...	-9.94678
▁#invertirenpersonas	-9.96876
▁#paradiseisland2	-9.96876
▁....	-9.96876
▁100%	-9.96876
▁:d,	-9.96876
▁:d:	-9.96876
▁antonio	-9.96876
▁apple:	-9.96876
▁aumenta	-9.96876
▁años,	-9.96876
▁chico	-9.96876
▁comunicación	-9.96876
▁crean	-9.96876
▁dibujo	-9.96876
▁facultad	-9.96876
▁generales	-9.96876
▁gracias,	-9.96876
▁gratuita	-9.96876
▁hablamos	-9.96876
▁llena	-9.96876
▁llorar	-9.96876
▁marco	-9.96876
▁my	-9.96876
▁paradise	-9.96876
▁pareja	-9.96876
▁pequeña	-9.96876
▁piel	-9.96876
▁pleno	-9.96876
▁race:	-9.96876
▁teclado	-9.96876
▁tsipras	-9.96876
▁ultimo	-9.96876
▁vida,	-9.96876
▁voluntad	-9.96876
▁vuelo	-9.96876
▁willyrex	-9.96876
▁¡enhorabuena	-9.96876
▁¡ya	-9.96876
▁¿la	-9.96876
▁"me	-9.99123
▁"tenemos	-9.99123
▁#aerotrastorno	-9.99123
▁#libros	-9.99123
▁#rt	-9.99123
▁28	-9.99123
▁360	-9.99123
▁aburrido	-9.99123
▁adelante	-9.99123
▁alcohol	-9.99123
▁an	-9.99123
▁anunciado	-9.99123
▁anuncio	-9.99123
▁aprueba	-9.99123
▁arte	-9.99123
▁atrás	-9.99123
▁banco	-9.99123
▁cierto,	-9.99123
▁ciudades	-9.99123
▁comprado	-9.99123
▁compras	-9.99123
▁conexión	-9.99123
▁conozco	-9.99123
▁día,	-9.99123
▁empezamos	-9.99123
▁entender	-9.99123
▁enviar	-9.99123
▁ex	-9.99123
▁género	-9.99123
▁hubiera	-9.99123
▁ii	-9.99123
▁informáticos	-9.99123
▁instituto	-9.99123
▁interesa	-9.99123
▁internacionales	-9.99123
▁luna	-9.99123
▁matar	-9.99123
▁medicina	-9.99123
▁muerto	-9.99123
▁mundo,	-9.99123
▁números	-9.99123
▁o.o	-9.99123
▁on	-9.99123
▁pro	-9.99123
▁quedar	-9.99123
▁race	-9.99123
▁raro	-9.99123
▁salón	-9.99123
▁sangre	-9.99123
▁seas	-9.99123
▁solución	-9.99123
▁temprano	-9.99123
▁tío	-9.99123
▁}:p	-9.99123
▁“el	-9.99123
▁"un	-10.0142
▁#buscanhackers	-10.0142
▁#gadgets	-10.0142
▁*-*	-10.0142
▁.@sanchezcastejon	-10.0142
▁2011	-10.0142
▁@3djuegos	-10.0142
▁agenda	-10.0142
▁asus	-10.0142
▁bug	-10.0142
▁científica	-10.0142
▁club	-10.0142
▁comiendo	-10.0142
▁contratos	-10.0142
▁culo	-10.0142
▁depende	-10.0142
▁dormido	-10.0142
▁faltan	-10.0142
▁fotografías	-10.0142
▁fueron	-10.0142
▁gordo	-10.0142
▁hacker	-10.0142
▁humanos	-10.0142
▁increíble	-10.0142
▁interesante	-10.0142
▁lanzará	-10.0142
▁llegó	-10.0142
▁love	-10.0142
▁materia	-10.0142
▁mini	-10.0142
▁noviembre	-10.0142
▁opción	-10.0142
▁parar	-10.0142
▁plataforma	-10.0142
▁ps3	-10.0142
▁públicos	-10.0142
▁reducir	-10.0142
▁referéndum	-10.0142
▁tarjeta	-10.0142
▁utilizar	-10.0142
▁venga	-10.0142
▁¡qué	-10.0142
▁¿el	-10.0142
▁¿se	-10.0142
▁#hacking	-10.0377
▁#orgullodelagente	-10.0377
▁#uam,	-10.0377
▁@hectordelama	-10.0377
▁actividad	-10.0377
▁alguno	-10.0377
▁aquellos	-10.0377
▁argentina	-10.0377
▁ayudas	-10.0377
▁años.	-10.0377
▁cambio.	-10.0377
▁cielo	-10.0377
▁comience	-10.0377
▁desafío	-10.0377
▁detrás	-10.0377
▁dirección	-10.0377
▁efectos	-10.0377
▁ello	-10.0377
▁empiezan	-10.0377
▁encontrado	-10.0377
▁estaría	-10.0377
▁explicar	-10.0377
▁gano	-10.0377
▁hablan	-10.0377
▁honor	-10.0377
▁jejeje	-10.0377
▁lee	-10.0377
▁leyendo	-10.0377
▁llegada	-10.0377
▁mac	-10.0377
▁metal	-10.0377
▁mirando	-10.0377
▁mitos	-10.0377
▁oportunidades	-10.0377
▁portada	-10.0377
▁profesionales	-10.0377
▁propia	-10.0377
▁próximas	-10.0377
▁querer	-10.0377
▁salida	-10.0377
▁software	-10.0377
▁suficiente	-10.0377
▁#g3ntigaan	-10.0618
▁#summerslam	-10.0618
▁.-	-10.0618
▁.@javiermaroto	-10.0618
▁[vídeo]	-10.0618
▁accidente	-10.0618
▁alegra	-10.0618
▁ashley	-10.0618
▁azul	-10.0618
▁blackberry	-10.0618
▁by	-10.0618
▁cambia	-10.0618
▁campus	-10.0618
▁chino	-10.0618
▁combatir	-10.0618
▁contar	-10.0618
▁corta	-10.0618
▁creando	-10.0618
▁cuidado	-10.0618
▁dime	-10.0618
▁fuerzas	-10.0618
▁futbol	-10.0618
▁habéis	-10.0618
▁horas.	-10.0618
▁hoy.	-10.0618
▁incluye	-10.0618
▁jugado	-10.0618
▁marte	-10.0618
▁máster	-10.0618
▁na	-10.0618
▁placer	-10.0618
▁pruebas	-10.0618
▁ps4,	-10.0618
▁sentir	-10.0618
▁sii	-10.0618
▁subido	-10.0618
▁tercera	-10.0618
▁tweets	-10.0618
▁vuelvo	-10.0618
▁¿aún	-10.0618
▁¿no	-10.0618
▁ángel	-10.0618
▁“la	-10.0618
▁"nos	-10.0865
▁#cumpplimos	-10.0865
▁#emppleo	-10.0865
▁#malware	-10.0865
▁(juego	-10.0865
▁200	-10.0865
▁@cbescansa	-10.0865
▁@patxilopez	-10.0865
▁actualiza	-10.0865
▁alemania	-10.0865
▁aprendí	-10.0865
▁arriba	-10.0865
▁baño	-10.0865
▁celebra	-10.0865
▁cita	-10.0865
▁controlar	-10.0865
▁convertir	-10.0865
▁dead	-10.0865
▁deberían	-10.0865
▁decía	-10.0865
▁dejado	-10.0865
▁den	-10.0865
▁dura	-10.0865
▁ellas	-10.0865
▁estación	-10.0865
▁estreno	-10.0865
▁examen	-10.0865
▁fiestas	-10.0865
▁haré	-10.0865
▁helado	-10.0865
▁herramienta	-10.0865
▁importancia	-10.0865
▁jajajajaj	-10.0865
▁l	-10.0865
▁legislatura	-10.0865
▁leo	-10.0865
▁miércoles	-10.0865
▁más,	-10.0865
